FFFFFFC6
00000014
000000BB
0000001F
FFFFFFFF
0000000A
00000000
0000006B
00000000
000000AF
0000006E
00000000
0000001B
0000004D
FFFFFFFF
00000025
00000000
00000067
0000005C
000000BD
0000019D
00000000
00000017
FFFFFFFA
00000000
00000107
00000033
0000005C
000000E0
00000058
00000000
00000035
0000003B
00000000
000000A1
00000053
00000000
00000000
FFFFFFF8
00000000
00000088
00000025
0000008E
00000037
FFFFFFFA
0000003C
0000004E
00000000
000000B7
00000010
00000000
00000077
00000000
00000000
00000000
00000000
000000CC
00000023
00000080
FFFFFFB4
0000003C
00000031
00000038
FFFFFFA2
00000093
00000076
FFFFFFFF
0000009B
000000A4
0000001E
00000039
00000080
00000060
00000027
00000000
0000006A
00000037
FFFFFFE9
0000002C
0000008E
00000095
00000000
00000000
00000009
00000002
FFFFFFFF
00000000
00000000
000000BE
00000055
00000071
00000000
00000094
00000000
00000000
0000007E
00000000
00000000
00000020
0000008C
000000F0
000000AF
00000008
0000000C
00000000
0000004B
00000000
00000159
FFFFFFE1
000000C2
00000000
00000024
00000046
0000007E
00000033
0000002D
FFFFFFF1
FFFFFFFD
FFFFFFFB
00000069
00000000
00000000
00000000
00000000
00000000
00000000
00000000
00000000
