090004FA00190200F300CD00081C0602
0F0000F00003FA00F400EF0001EF1704
090002050007EF00F5000900FD010A01
F20008F200F806001800E300FCFA0BF7
F0000C0100E8F000EC002600F804002C
1500F6FA00071C001300E60004300BF6
F0000FE3000203000C000C00FE14FB0A
F2002EFC00FF0600FB00020018E503EF
F10004EF00FDFE002600F7001205E7E6
1100EA0200F5F6001D00EB00110003F2
EF00F70500F9000007000D00EDFCF51B
06FE1300000E1E00000016FFFB1B0C11
1E001105000BF5000300D7001B0A01ED
D9001EFC0000FC0011000C000BE5EFFD
F20007E500EFFF00E8001B00FEE4EB20
1500F20100F6FA00FC00FA0000FE0806
1200F303001C05000300CD00000FF2F0
2600DE030010F600FA00D000FE021202
3100DA0700EAEB001100DE00000D05EE
F700F60200140700F500F000FCEC0601
F30023F80010EE00D9000000FEF9FC22
2300DA0500FC15001B00CC00FA170AC1
F90009F800090B001300FA00FEEAE9F1
ED000BF60004FB00DB0024000DEA0417
0300F8090011F9001200F500030EEEF2
0B00CE090008FB002400EB0004EFF4BE
10FF17F9001A0100EA0011000403F21B
E40011FC0016FE00F3000F00F6042912
11000A0000FCF000F400FC00070B06F1
F4001C0300FFF000F400060008EDFD07
170011DB00FB0200CA002D00E4E1ED2B
2500EF0800F8FB000A00F300FAEF06FF
21000B0D0007FA000100EA00FB0EF1F2
2600ED1A000401001600CD00E82228D4
1000E807001EE6001B001B00EE0208D8
0C00050B00030100F60002FFFB15F506
EE001C0B0015F300E200EF0007E9EFFA
FB00EDFC001EF6002C001600F41802B7
FB00FC02000D1000FD0003000915F203
02000D0700F50500D6000400F7F11114
E800080500F8EC00EA001C0003F62407
F500B51500DEFE0035000800FDDE1BEA
FCFF1D00000E0800E000EDFF04FFFF15
FC0002FE00FBF600F400CF00FDE43DBC
02000DF60000F100F500FB00EC0617EE
00001C0A00F9F500F700F9FF1CFE060F
12001CFF00F2E600D400EF00F9EDEBFE
1D00FEF50021050013001800F70510FA
FD00EAFA00FF0B0009000600F9181CF8
0900E9FC000804002F00E4000017F2C1
F800F40B00F8FA0012001800F6042ADB
05000BFF00F6020011000EFF05150B04
0A000F0D00FBEE00F600DA00F6FEF9E3
ED00F8F0001103000D00240009100BE5
08FF13FE000C1700FB000BFF04FCFB07
1C00210E00FC0E00F100F80006DC19EF
F30018E4000FED00D600030007FE0B16
F300ECF900FC050000002900F2EB05EF
12FF0C0C00F40C00EF00FB0001EDFB03
17000F10000B07001C00D8000FF105C2
FF0000EF0005F300E7002100F8170808
F3001AF70002FA00E8001BFF0D0E1612
18001A1900040000F700C400F2FE02E4
1A00030F0011000006000600F50705FA
FB00F30500F704000E00120002F6170C
F700E2F800F6FC002A000000FAFFECD2
0400E50300FFFA0003000000F8F801E6
0100F30000E411001300FA00EC13F5FC
29000B2600FD0C000100A500EFEDF7DD
0B00FFED00F7070016000900F61705F0
F9FF0FEC00FF1A0003000DFF04030907
3B001D1C000504000A00CC000BF208DC
E9000CFD00F21400E600F100E7120E1B
0A00FBF500EDEA00EE00030013F0F5F5
F500EA1400F0FF000D00DD00FDF1E8E8
060005FD000C1D001000F60018150BF8
01002200000B0F00F9000D00F3DAE906
F000010400ED0B00F3000200FB0CF50C
0E00F91400EF1B001900A400F604F2C4
FC00EAF000F5020019000B00F6EAF7F7
0E0010F80012F200ED00DB00073E0205
FD00F3F4000DF0000400F400EDEA09EA
050011F100FAF7000400FA0009EDFFEE
ED000CF9001606000400FB00F1F1FB00
D70001FA00EFE400F8002500F9D7FF2B
FC001AF200FF1D001100FF00081104FB
1B001CF100061C0009000400100AF606
0D001DFF0011F000F100F4001705F41A
1A000BFC000202000400E2000217F704
0400030E00FEFE002000F5000B0507E9
090002F800EAFC0001002400FFF70F0F
EEFFFFF900E91B00FB001A00FD020228
000000FD0005FE00FD00D700051B08F8
030008F800FB02001C00F0000AFF0AF0
1000081300FEF50029003600EF060530
FE00F9F800FCF600F9000900F1EC0202
0500DEFD00F6F8000200DA00E50BF010
05FFF4010006E600FF00DF00160907F6
0A001401000AF600F80000001CD707F5
FAFF02050020FE00E200F8FFFC071702
F60001F80018F900DD00190002DFFD03
E7001AEF00F4EC000B00030010EB0FE9
FE00E1FE00F905002E00E700F3F8FEE9
1300F1060015ED00EF00ED00FE0B0020
0C00FAE1000DEE00170001000417001C
1100E00E00FC08001B00ED00F903DB05
0900F4F700F7F600FD000100F2090905
DE00000200FFFA00E600180003160E0B
FE00E5FE00FC0E000E00E400F4F9F20E
0F0019F700FFF7001200E900031BFBF8
08000602001BF7000600080000100C14
E4000FEC0001EE00F200F20016FC02DF
1200DD0500F1FA000E00FE00F505F401
0A000DF0000CEF00D700E500FE090FEA
F7000815000C0700FC00FD00F6FE07EB
FBFF1DEF00EB03000000FFFF0806EDFA
08FFFE1F0007FD00F600FE000FCFFAE6
ED00CF1800FD06001200EA00EEEFF9F0
0200220F00FA0500FA00DC00010AE5E9
0500EF0600E90C000F00F70006DE09EE
FA0004F8000EF90002000F00F0F7F906
E900F90300F4F00009000000FEF40F12
1CFFFDEE00010A00F4000200F90B100B
FD000A150000E700060020000D12180B
D50002ED0008ED00FF001C0010E801EB
0E000CFA000BFC000C00F1000903EF02
FE00E50B0012FF00EB00F6000FD205EB
F90018080014EC000200FD0003092200
E500E1F800F1F90009000D00F4150F08
ED0004DA00F60800F100200002FEE415
E10013EA0014EC0003001900F1000BFB
050032F800FE0A00FA0004FF13F4F9ED
1E00FE1D0004EC00F600E300FBDDFFE8
CA000AEB0018E200E300F90015F8030F
FC001118001702000400ED00F40BFDF0
1000180300E8E6000C0001000FFB16EE
E9001FF7000BFE00E300EF000B040DE9
C700E8EA00E4F300F5001B00F0F81709
32FF08FE00DFF400F000FC00F110070C
1900F11A001701001300E500E6D303F7
F700F3000011EA00F3000A00FEE91304
F8001C03000DEA000200EE00061320FA
2F001D1B000D0500E900E00006EB07ED
08000AEA00FAF700EC001B00E6FB022D
EB00DD0C00EE0D0003000600F4F804F8
D400C9E400DA0B002C002A00FD14EA0D
FA00FFEE00FD160019001600F60DF5E3
110034F500EA02000000E0001AF3E8CE
1800011900E50A000800CE0000F0F4E2
11000CE8000B0400FD001000081AFE0B
F5FF24F800011200F9000900151C0401
1D00231400E1FD000A00DB0004FA04F1
02000C0B0004FC00ED00D100FEEDF9F4
EE00F10700E802000800EA00E7E524F6
2D000C1D00EDFB001500EF0014F401FE
17000A2200190300FF00EF000F10E8E6
0D00C90100DBFB000B00F900F3E4FF19
F5000DFA00020E001100E90019F21CE9
0D00D40F00E202001200E700EAD7D0E9
FF00FCFA00DCFC00F2001500FB17EE26
F200E6F400FAEE000200ED00FC000B03
0000F8F200DCE6001700E700040F06FC
F400FEE60006F1000D00F80017FD03E5
EC00F2F700E0F6000C0000001AFA1900
FE0006050019FA000D000C000E000F01
0700F7F100001000F6001A001A0DF302
F600EC0900FE1D0010000F00F10AFE1C
EF0003FB001BEF00E800FD0002FFE0F3
0D00F5020004F5000C00F300F3EAF1F9
0D000E12001006000E00EF00060BF6F2
FF00F51200E419001D000E00F305F511
09FFFA0D00020800FB001BFF1B2B1611
F6000410000803000600DA000308FFF8
1800F10C00ED0A000600F90002FBF6FD
0DFF05190016F40010000900FBEAEC08
F3000EF60007F20014000E0017E317D5
FF000209000A0F0001001F00FFE7F2FA
0400EBF300E31500F400F3000024EB14
EE0015FF00E8EC000300ED0020F10BEE
FF00FFF800F401000800FB0007FE25FD
FD00FF09001405000A000F0010FBFEF9
E4002E010002FB00E90013002714F2F7
E200F6030000F7002B000A00EDFF0BFE
FB00FAED000EF500FC00050007F9FC0C
1A00F6F4000500000C000800FD0B111D
0A00E406000C0D00FC00F6FFE6F4F10D
0500F8FD00DE0F0005000B00070AEC0D
EE000B1A000E0600F800190026001A11
0A0005F900FA0400E600D900F7FEF2E8
0B00FD0200F6FD000900EA00EFFFF007
F8FFF2EE000BF900F900FF00ECEEDDFE
EF0016FB001F08000B00EF002C0603E4
0F00DAFF001BF50002000C00EFFC111B
1C00F7FA0026E000DA00EF0005000D1E
0600E40B0015F200F100F300F9F509EF
0AFFFCFD00FC0400E700FD00F5FF1015
F3001404001BFA00EF001000FBFCE109
EB00C313001DE100D500E500E9E70DF4
1300FD1C00F11D002300FE00F9D6080A
FA0009E600F21500FD000B00FFE5F2FA
1E00F4F20009FA000C0000000011000A
DF0002F90006F300FC000400F80508F3
0400FCF000E601000A000800110DEC11
EC0027FC00100400EC00F3001FF7000A
F800100700FCE300F900D800061B06E2
1FFFE8FE00E2F8001200F100EFE6E2F6
FD00F6F600F2FE000B00130004EEEA09
0A00F0050032EF00E300D500010EFC10
F100F80100020A00E800E400F2200D0B
E1FF02DE0010F000DC000C001604EF16
EBFF18E400FEE600FA000C00EF0E0105
2DFFED0300E6D900FD001200FE0A111F
010009FF00EF0B000F001700F51BD52B
CC00FD0400110C001000ED0004F60FD3
2900141300060400E400D4000D100208
EF0022F400F90500080003000F0BEAF9
1100F4FF00ED060008000400FB05170E
E000FD0800140500F800E500F3E107F0
0A0004FE00F6F900040011000201EA0C
07000718001AFB001100F600EEF71EF7
F700090A00FC02001B00EE0018E5FEE1
0D00150F00F108001800040003F0F80D
F5000CF700FB0A00FD00FE00EB0EEE16
FCFF08F400F6FF00EE0003000F13ED20
D400FBF800131100FE000600F7E808F6
C1000CD30024FB00EF00F1001BEC1806
F1000CFC00FD0900FB00FA000100F7F7
0D0018FB00090400F900010018FDF710
1B00020500FA1D000900F600F820E724
F5001106001305000600EC0020F50FE9
0F0018F900092000FC0009001000E6EC
0C0009FF000005000A000700090BF0FF
1A00F81F00E7FB001C000700F6F2080B
EC00D50C00E300000D00D100CEC81BE8
1200FB0C00E9EE000000140000F2ED13
0D00E5FF00170B000F00F400F60FF903
CE0011FF00E110000600FC0011E4FEEB
FF00F00600F515000D000E00FCED05FA
EA00FA0200F3000003000700DD0C0EFF
FF00F31200000C00FD00F3000FED10FF
1F00F10500F00700FD00F200F428F32B
FA00030300EEFB000100E900001F0215
F3001AFD00F8FF00FA00DD0013F4F7F9
0D00F32900D9EE000800ED00F61D0E13
E1001BEE00070500F700FA001C14E5F8
1000FD0500E608001500FE000AEB0011
E300F0EB001C0D000A002400F8FBE6FB
FD00FCFD00040C00F400ED00150DF3EC
F700EE0400FE0100FC000200F4F4FBFE
F600F90400F50F000C00F60002FE03F4
0700F5000003F9000D0002000006F4F9
F6FF12F9001A06000A00180023FBE8FA
02000B1100F40400F900FA00EBEA01F3
EC00F7FC00150E0010001000F4DBFFF7
F00018DF00320400030021001CD4CDDE
FF00201800EEFD001200DA0015120AF3
2100EA0600EEF9000000FF00030A0914
2800F91F00F1FE00FC00D700E931142D
FE00FE0A00EBFE00F800DB00FE1A0BE6
2D00042500E5E8000D00EE000132271E
E9FF0F04000301000800000015E6EDFC
E200D30300F1FA000E000600DCF811EA
C60018F30013FC00F2001100F11306F5
F600E7F100031400FB000C00090AF8FC
0100EA0000FE0C0004000500E7F907FE
F600E5FA000CF1000F00FFFFDC040A01
FE00041000131400F20003000BFCF7EF
D90005FB0011040002001F0006CFE5FE
0200E9F400D9F200FC00DB00FB1812F7
FD00030300F4F60013000C00F7E7EE00
F9000EEF00290C000400210016EEEAF0
1100030A0007F100F200C300F2260503
0B00F3F9000D0D00F1000800FB05160F
F900191000EADF00FB000000110D041A
1C00021400E8D700F600DB00F72104F9
2800121500E5F600FC00EC0016F9241D
FAFFEAF00013FF00FC00FF00E8040EF1
D70015F8000EEC000300E200F703F8D3
E300D902000510001700FE00FDF4FF08
07FFF7FB00FB1500FB00050002EC06FE
F400FBEB00FA0E000200180011FD0C15
050001F800070500F7000600F5F0F4EF
1200E41500050200FD000DFFF312F410
E000FF130006060018000E00FAF223F7
E9002CEE00FFDC00EE00E400191DD6D7
0200EA0A00F50900FD00FB0000E7FEF9
1000EB05000CFA000E000A00F1270902
EA0002FD00F9F500EA00E100041BF707
FD0002FA0017F400F700FE00E60D0006
F700F6F700E70F0007000B001EDF0513
D3FF330000F6F700FA00040013ECECDB
0600060800F603000B00180017030810
F8000D0200011600FA002100FF26F4ED
E800FF0E00E50A000600110010E205FE
2300CA190000FF001C00E900EFF00D14
EE00FD0500070A00FE000700FA03EDF2
1000C30200E5F90012000E00F3F90C21
F10003FB00F90400F1000C000BF6FC05
EB00F1050005EA00E100F900FD0DD5F9
F100FA0C00211C002900E600D6FD21ED
D10009FB000F0400130037001F02C6F4
1600D41400E3EE0026001500F7FD0B21
FA00040200EADD0002000400E91B08FF
F60007F400C80B000600FA000FF4140D
E700FDF000041800FF00F50000EEFFFE
D5001BF000F3FF0018000A0016FB04F5
E60021F10006060000000E0027DBFDDF
D80013F70005FB00040017000D0CF908
F300040700D4070023000000E3280603
080007080005FD00F600FD002B06EC01
1700EE0700ED0C00040003000A0A081A
EE00E30B0000F50005000B00E70D020D
0B00F10F00E5EB00F0000D00FC03F314
F700ED04000211000500F200FCEAF4F6
F400E4010000070003000000F80AF20D
0500F60200FB1A002200FA00EB1E2307
0F00400E00DE1000E60014001DFFF612
0F00F41400F8F00005000E001017D70B
DA00FB0500E9D3000600F100FD11FF11
16000C0200E002000900000019E00C0A
FE000A1100F9FE000200F900FB080F22
E7002BF500E60F00EE0008000C0DF8E8
ED00ED0000FF0A00FF000000EDF90A07
D1000F010002EE00FC00160005F9E7CE
F600F5EF000BFF00FB002100FA01EEFD
EB0014E500FD0C000800F200170F00FD
F30003FA000B02000E001C0016FC020F
0D00D40D00F20B001700FD00DBF0FEF9
2800ED06001414001300EB00FD1DF517
0600E31400DF19002400EE00D60310F5
DC00FEF6000D0A00F2001D0024FCFBF9
F0FF01F900FD0700F5001B001BFEDB03
FF00E70F00E711000F000D00E2F71703
F500CB000021180002000700FDECF70F
1B00DA0E00141500FB0001FFE0FAE4F1
C10017EB000B0400060013000FF0F5E5
FF000A0C00F1180013001800FAEC0B0D
E50018F000F4FE000000110014FFF514
FF00080500F90000FF00E700011902EE
F100ED0F0016070009001100FBE100EB
13FFDF0900031A001F0011FFEFF40A00
AD004BEA0028E8000600030023CCE7CA
FD00DD0F0002FD0016000B00E70F0CF5
1100D81800FE00001100FB00C9061C09
1000E8FA000E0F00F4000200E10BF2FA
0800FBE200E4F400FB000600F70B16F6
F700C0090024210009002200F4E50E0B
F60002FC001B0F0016001A0004EB0AF4
E70000E300E4DD000000FE00F5101A05
FC00B30900020200E40014FFC9E4060B
3800CF10000C1600FE00F7FFDE1D130B
DF000AF400F315000F0005000FEFF7F1
F300FC0300E6FE0021000A0002FB170F
E6000BF300E403000300F9001405EEFF
EA000BF900E8EB000400EE0003020BDF
0000DA140005050007000CFFEEE20C02
0DFFDD1E000A0600170005FFDE031611
AD0013DF00FD0900F200020013ECD0E2
EF00D20D0002010005000400D50A0503
1700F911000301002000F200E51111FC
FE0004FA00112800F1000EFFF3F80AFA
F40003FA00F5DE00EC000B000300F4F5
25008122001B1500FE000F00C3F31515
0D00F00D00FF10001A00FC00F6F30D0C
EE0047F8000CDC00F000EB001620C7CD
F900EAFF000D1F00F800E2FFBF011DED
3300DE1000E4F1000500E7FFC029160F
F1001EED00EF0D00FC000FFF19F0E2EB
080018E1000CDA00F3000D001613EBFD
FD00F0F800070800F4000B0024E110FE
F9001BFA00E602000E00080011C7FAF3
F700D31300FAFF00FA001A00E6F6F6E8
1A00D90B000909001800F7FFE0F71000
ED00EA0000FF0B00FC00FE00FBF206FD
0700C30E000F0000F900FF00E1031318
0000020E00FB00000800FF00FC2BFFFF
FD00F0170001F300ED000F00F8F00B14
E30002EF0013F500FE000F000410F9F3
0100C31300FB0E00F7000A00D70603FB
1B00ED0B00F718002700EF00E01E0A07
DB0004E60026EF00ED0001002A19DCF5
FA00E4020015ED00F3000100D12F12F6
E900E0F900FB090030000B00E50712F4
1600E2FE00E71D001B0019FF05E50507
F60014F0000AFE00F100190017EFDCF0
2B00EA1400FD0C000300100013FAE50E
F00012F800EB12000700160021D7F9FC
0500DD1900040A00F0000400FF020302
0000EA0200FBFE0014000400EE1D0909
F900F70100FD2C00FD00000004050CFF
0700F0F90015FD00F0000300021FFF08
F30000050002F300FA000A00FE23FC0D
FD00FDFF0013E500EC00F8000C32E0F7
F200F409001DFE00F4000700010BF414
FD00DF0300F804000300F600EA14040E
0400010000EF1F002800ED00EC2809FE
0B00A20400F5F40008000200E409080B
E800FB0B001AED00EA000F00F219E402
0200090900F50A00150015000BFDF605
FF00DCFB00E8100009000900FAF7FF08
F5001308FEDDF900131B000D050E2000
F8000C010514F7003BFC00FFF80CF900
FE0008040412E50024F600F5F4000700
F70011000CF309001216001901121400
FF00070E2C25E20013A900F1FDFEEF00
FA001E0911DC0A000812003113041500
FA00070123000800F6F5000EF9F9EF00
0A00F6031EFE0E00F906000D09010A00
0B000505F405FF00EC0B000C060DD700
0A0009F9FBE5F7000F1D00140E02F600
F700F112FA161B00DBD5000119F00400
FA000B1129090900F2F4001B13FB1500
01001401FCDEF100082900160A020200
0B00F90B0215FE00DFFA0015FE00E100
0E00F81FF0160A00E0D800070008FA00
F6001301FDFEE9001EFE00FEF9040000
00000DFEEFD2EF00F428001104110F00
E200FF0216D8E80028F5001F11FA2100
F600020303F3E30030FE0004FBFAF300
EF00FB10E9F21700E00D000D0BFA0400
FC00D80B00040700EA06000F0604F500
F600201106D0F9002F100018110CFB00
F0001AEB02DA0200EB1F0015FC03F400
0900EAFD001B1000DBEC00FB05F90100
FF00EDF6FA070500CEF9000711F3F800
0F000701EAE8EB00FE360009FD0BEC00
F800041AF1081000EEF9000607FCFB00
FD000C102D12F2001D0000FB0EF61700
F700FD0804EC08000FEC000BFAFEFC00
F400EEFF02FE0600D414001C0B050900
0A00F70BF616EF00EBE000FAEE11F500
F400F1071409ED001AF400090801F900
FF00F90EEAE5FD00091000EFF9F0F900
E80012020DE3EA004412002203201600
0E00F601E70BF10018E400F80705DD00
EF00F606EB060800FEF000020B071100
F200EA05EDFA0D00DA29000A0716F800
17000203FEF0EB0015EA00050606BA00
F800F8FD02F91700DE03001B02EC0C00
0100FCEC1405F5000403000601061200
F700F8FE190CFD0008ED00FDF9DC2900
F900EB07E90E0700F70F000A13FD1700
ED000807F2000900F01700050307FD00
04000CF13AE3E5002040001400180C00
F10001140614070023EE000F0D07EE00
0700F3F7F8011000E80E0000F9FD1100
F600100BDEFCFA00F21C0014FE180000
1400EF041515FE0005F100030B01D300
1300FA000E0803001205000009F9F500
E9001CFDE6F40000FA1D00040310D000
F7000709EC1BF90012EC00F9FDFDF200
E800F410FC010000F301000B09FF1800
FE00F8FFF9D1FB00F33700F8FC13F000
FC000E05FD0C0500F8FD000F0210F700
0200E710F2152000F004000D1B070400
140013F01C0BF2003B0E0005F20DDC00
0C0002FA12F5FE0005DA0008F6E30900
F600F80B021F150000E700F2FAF7F300
FC00FA13E601FE00F41E00FF0B0E0600
0B001A1603D4F300143A00140A1AF000
0300FF18FC17060021E00010010AF700
F800EE090D03F900F1ED000800EAF500
E700200AD501F6000C36001AF81F1000
0400F414F410FB0006F400061B040000
FB00F7F720070400F4F7000005FE0D00
F30013090BDFFB00012F00020806E700
F9000BFF0EF8F6000C1600F907012100
E000FFEC0AF40A00EA0B00090708FC00
EB000FFEF8C2F3000E2700060619FC00
F9001117090DF50028F20020100A0200
0A000C0F09F72D00EFFE00171301FC00
11001D0C07DBDE002F110007081CED00
030003E914F10B000CE500FFF1F90900
120009F50BFCF2000CDC00F2F3F4F500
FE0000F5EBE90B00DB2D00FCF0FBEF00
05000C1612F6190003180036210F2300
0600FA18EB091700E81F00000506F000
F8000805ED121A00F3EE00F60CFA0200
F3001A00E4D7110006360003FC28D900
F800F903050D0000F80400030E0AFD00
F300FD0406BB000015EA00140FF11200
F700130EFDE1F70030F4001308F9FF00
FB000BF61A03F20019FD00F8F1FBE900
F400EFF407DD1300ED0600FF04EF0600
0600E20CF624EF00DFBB00F509F7E900
F50019050F02FF001D19001B02060800
FE00FD0001061400E30E000B0DF51500
0200D905F1010800E8E4000407ED1800
F9000008EBF50400F906000801081600
05000309ECF6F900F6FD00081000F600
0300090008111700F3F300070A030F00
0400FBFD12201600F0F2001014F20900
00000CFA01DEF900001700080604F200
02000AF50B04FE00F72200190B002100
1100D101F038FE00B5D2000512F4F600
F800FD01071CF80027E50006FDFCFA00
FB000600ECD6F700100A0000FD031B00
02002BE30ACE0400FD1100FDDCF90500
0F0007FC03F11000110D000BFB06E900
F00004F70AEDFB00EF01000CF3F70A00
1000F90B010AE30016FA002009090500
060010FF030A0E0002F000F60EF4E500
F900FE0EF5EB0600F51C001528031A00
F400D7F6FFFE0000E406001914EE1200
0200F40CDDF8F900F3DF00F005F0F400
F500EBFCD0E21B00C21600F7FCF80800
0600000DF6080A00040100FC07F80C00
1900EE0F2009F6001D030021FF00FE00
E400EAFAFAD9FE00ECFB00FA08010000
0500EDE7F5DC0200EF2100080C071000
1200E7F3F516FD00DEDD000C11E20200
FE0005FC20E0100007FE000A0306E700
F6000D07F2FBF5001800000002F8EA00
0E000D031204E9002CEA0007E409F000
FF00F30E09F9040005F600FAF404F900
F6000F000306F600F40700F50204E900
0300FD0FF8F90600E2200015040A0700
0D00F4E709F80500F10900FA0104E600
EF000C070CE2ED00EE13000AFB092000
0B0004E330100000FB24000FF4011200
F200E60DF7000E00D70400F81400FE00
F800D2EB06FA2300B5D8000A10CF0C00
15000C030406EA0020FE00010513FD00
1200FA1B0802F3001CF600FEFC040500
1000F8F908FAFE00F0EF0006FCF1E300
0000F7FCFBE604000810001508F90F00
1A0000FBE81E0C00112400F70312E400
1300F8FB0B09EB0012EB000BF90CFB00
0200F1E601FE1600D0E300F7F6FBF800
FD0016FEF5FD1F00F4E40001F200F600
F800FA00DD140A00F2D700EAFD04D100
E800FE0DF100F6001A1100FBFC17CD00
EB0015FEDBE3F0000A220005F310FA00
F500EFFEFEF6FA000EC800F3F8ECEE00
FC00131AFF030100F00F00180E0C0400
0900FB060C02E80019F500FB02F4DB00
0F0019ED1BE5FD00030200FE05F10600
0C00D8DE14032000BFB700E805D71200
EE00140DFA10D2002F100003FF11FE00
FC00F715EAFC0700F721000619030900
FC000705F7F4FA00F5DA00F900E10600
F000F8EC1D0801000CF200FAEFE9FC00
0600F811E30EFA00141400FAF815DF00
F100F803E619FB00FCE800FA0400E000
FC00EBF421F81100BEF5000402F21C00
0000F2F1FF143600CFF700F208EEF300
03000105EE0E1300EA0000080C0DF900
12001EF6F908E400212C00FDF824D200
F9001507DCE3EE00051E000FF130F900
0400081A0F07FF0012CC00080FF9F900
070004121204090009E9000D17FF1500
F9000D18FFEFE8000A180004FC10FE00
03001CF70BEBF30022FF0010FA050000
F80016DF02EBF900FB0500FDF4FD1500
F70023FF00F7EA00241A00FA090C0A00
0F00052500FF0200100B0023FB141E00
EE00EBF6DAE31F00D903000DFFF11A00
08000BEB15F7FF00F81300190FFB1600
FE00180DD3E5FC00D63700000119EC00
010003FCD8050E00F2DF000001EBFE00
F8000F0100DAF700030C00F4FDFC0700
E40008F820E608001ADE001617DE1800
08001EED31EDE80022FB0003F0EDF700
010004E234E90E0002EF00FAFDF02E00
3100EEF1E70E0600D7FA00F406F7F800
0C001D171B0B080025F10011F5F8FE00
06001007E0061B00E6F4000713070E00
2000031BD4F61000C90E00E0F115D700
F8001013DF020800F707000CFF0FE600
FA000407EDEC0C00ED0F000611FC0100
040001FD06160000EC0700010C072000
1A00E60FE4F92400D7F8001B1EF82300
F5000402FCE30200021B0005F7100000
01000712E8F50100E10300020C04FF00
1C00EC0DA3091B00A92D0000FF13DE00
120016E72D06F50025070006F7FAE800
020008FF08FE0700150400FAF5FFEC00
F00008FC10D40C00F701000DFDF00400
FE0023E61BD9F90014EC00FEECF50700
F700F00A08EB000005FC000811FA2000
2A00E7FFF3F30200E91200FD00FF0A00
020028F50CEEFF0005EE00E603F7DB00
FB0000F4E4F00E00E1FD000208071300
1200E90CCEF61900D5FB00E804FEDF00
F800F506ED1106000AED000908020800
ED00F50ABC081600D40300FCF709EB00
0800FE18FB22FB00F4F800FA09F3FF00
1900F50C02F3FF0007EB0002FFFC1000
F6000DD802D7F0000B2C0009E605FC00
FC000400D3EB0E00F6FC00EB03060200
3000FE0DDA09FB00FA0200F6E906D800
19001CE420E404000B00000CF608FD00
0000F80408FF0E00F50B00F9FCEEF800
0800F21CEFF7E60037EC00FCEEF0F800
F200F7020303F2000CFC00FEF209FF00
1800FC02021EFC0020F700FC03FEE000
07000D0DDE061300FB1000E80311ED00
0500CDE50BF10800EC0600F2F7E9F400
020026F108F9F800031A001CFD282500
0F000BF5F50B0600041D00FD0914DA00
FC00EAF5F5F90700F0EF00FB0EF20E00
F500DAEEECF20400E3FC00FC11000100
F9000406FD1F040011D6000AF0F40300
F60012FAF1FB1400DA0300FB13F7FF00
FF00E3FB06CCF1000AF200010FE91400
F300F71FEFDDE8000F060000FF070C00
2000F71ED7110900080A00F3FFFDD800
0000F4F4EDF0F700FE0400ED03ECFD00
EB00F4FCEADA1300C30100FE09F8F100
F000F20208E90C00E3B500EA09D60A00
FC00EBFDECFA0800F1D5000204ECE200
16000838D51CF10010C900D512F9D600
19001C20D2151400EFEB00E4F701FA00
1800FAFF07F80700F00B0010FB12FF00
04001F0B0FE9EC00141B0016F4091700
08000D11FDF7020005FF000405040700
F10000FD0A18FA000E150005FA0E0B00
050005C70CF11700DD2900F6FA031200
030003F71B0B110011E1000601FFFF00
0800E80A09FC1C00F114000C18ED2200
1B00E7EC22F00C00F11500F8F8F60400
F000F90A061308000CFD0000FAFEFA00
FD00FFF8EB161300FAF300FE07E2F800
0F00E210EF051000FBD900E6EBE5F100
F60003F412FA0900E30900F60C030000
1200EAEC17CC090000E600EBF9E0FF00
0000F205FA100B00ECE300FC08F5F500
1800071EF603080005EF00F50CFCEF00
0B00131AEB0E1E00DC0F0014120F1200
180009F918FDF2000501000003050900
00001D271D030600171300100C18F800
1400FB0418FD0A00050F000EFD100500
EC0018F5F717F900120D00130419F800
F00027BE0EE2E80011280004EC08FB00
FA00F0F80EE40500FCFB000909EE0B00
14000416E7051700F20A000AFB060500
110003EB2E10EB0019050003F8030400
EA0017031A0FFE000104000904060300
0200F3F808F31100F709000110F42C00
F80009FFF10E0700F80A00F10E051000
E700EF0D1EE80200F3F0000818E72800
E100050711F6FB0004EC000B0DEB1800
F70010F61ED60000040500FDFDEE1C00
D600F8F706F0F200FC0900FF12FA3900
10001008E1E40000D41D00FAF000E400
0500121AF2F90F000803001E10071300
1600F515EA1B1800EAE60005FDFFD700
0600101608E1F500080A0002F9FC0000
F6000101020B0800FE09000A04060100
FC0015FC02FFFD00121A000CFE100600
F800F211010AFE00DEFC00FF07FDF700
21000D17CDF71000E61A00120205F000
F10013040316F8001702000110110000
020001FFF81FFD00E02100F1E91EF000
1E000313E61A1600DD2000E6F509D400
FF00FCF60EF0FB000607000D09F21600
0100180416EE06002ADE00F5FEF50B00
DC0006FC10CDFE001CE1001412F53800
F70008E51EEAF2001506000F0EF91B00
DC00090FFAFEFE0014F3001D11EA2E00
0500DE1E07F50100FC00000503070100
1300EFEDF6FE0B00FCFD000F101BF300
0100FB03F2040700DFE400F708F2EA00
1A00EFFE03150800010400FAFDEEDB00
FD000308ED0AF90022F1000908050700
0600EE010513F800FA05000000FAF200
06000CF90AF0ED00F4080007F6080400
2100FD19BEFFFB00BD2000DAE3FBE400
E2000EE41CE2E20013F1000F02F7FF00
FF00FBEEE7160200F7FA00E9ECFBE700
1E00FD1800170500E10E00F50502F300
F000FA00EDC3F8000A1100150DFA1E00
FD00FEFD06F2FD0009FB00F8FCF91200
0100DF1AFCFBEA0017D700E6FBF71400
E100FD0AE0EBF20014F30006FEE51A00
E50012FB1001030005E8000306F91500
08000A05F80BF800FFFA000EFD050000
0F00CF15D5F80F00F71500EEEFFAD400
0900F5F30E210100E70300E20A061300
100001F5FC0F0900000C000FFB0AFA00
1600ECF7FE1CFC00FCF60003F706F700
0800EE13F4040400EE1000FFFA0EF000
050005F6060BE8000A0B000406FF0E00
0F00F0F0F0080700D60100F5F5F2FE00
F800F007EBF6F900ECF8000508FAF700
0A0003EE0E150100080200F90315F600
F900FEF6FB03FF0018F70013FEF10D00
F300CA04E2E50E00DEEB00EFF8EA1F00
0000F814DD000F00E2F600FE06F1EB00
FF0013EE04FBFE00FFF200E911080600
FD00E0F11D03F000E0CF00E700F1F600
16001708FB03FD000FDC00FD02FB0400
18000A01FB100B0000FE000702FCF900
FA0010F821F8F900070500FC07101200
010002FE0503FB0009220017060A1C00
1300EE10FAF30B001104000DF1130000
080005F22E17030005FA0009F0011100
FF001302F7060600F80800EAFA0CF100
0B00FA0EFB04EC0010F900E3FAFCFA00
210005F8F4FA1A00F30A002C150D1A00
1800E50B10041A00DD090001F9F8F500
0700EEF81513EE0018FA00080D0B0E00
0F00FDF8FCF3F3001201000401FCF700
F300F8E52803E80005D700FC11EE1500
E9000E0CF7020700FA1700F70507EC00
FF0001E12508F500060400F4F7F50900
160003EF0F0F0900FBF500F409F5DD00
0E00E8F11EE80D00E80300F306EA1600
1700E0E20F02090007F0001D17E81C00
08001009FBFA1000F6F600F9F0FBEF00
EA00171EFA010300050800160E0D0900
0C00E9FD0FF40600E5FF00F704FB1800
FD00EF1302100C0010F300FDFBFD0000
EE0013FDFD071200EF0500090904F600
0200E5E91AF6F40001F700FF02FF0900
18001000EEFF1500FB06002D130D1800
F20012F9000BF500090D0005EBFBF700
FF00F01F08EB000009090004FD031600
0100D7F519D9FC00F2FE00FAFCE80D00
FF001503FC11F00003F200F109F6FB00
FA00EEF61C07F600FFFD000000F81400
0300E80209F31500F4F10000F3FAF000
FC00EE0103EA0D00EC0500FF03FA1200
0F00E511E8121400DA1600E6FAFCE500
F9000F100606EF00F9F800F3EC05F400
0700021C03EE1E00FB16002C0BFA0600
1600090BEE1B1100F6E9000BFEFFFC00
E20004020A0A0700EAFE00FB04090800
F200FF0E04040100F9FD00221E060E00
ED0001F5050EFE0011F7000B210B1600
1900EFF20609FC00F0E900EFFEFAE000
02001326F90D2000EA01000CF41EEA00
0900FEE80C1802000DF700050DFFFB00
0400F500FF180600D4FC000105F9E300
F400081B09FF0F00F305000DF90FFF00
0A00EC1809EF1400DB2600F4EF00F100
080010061A28000014F200F8FD1C1A00
FE00F2FEFF140200EFE700FEFA020A00
FC000010F1D504000E050010FFFF0900
2000FB170A04F000F11C00FBFF0F0500
FA00130B10F70000F9F5000A0E110900
4000E60DD1171C00F60600F4EB05B100
FD0006060C0A0100FBF1000002FC0900
DE0020F1150BF10014FA000E140F0A00
F6000D000400FB00100A0007F90B0800
F600F9070813F900FFDB000805F9E600
1500F3FD1601F200D60200FBFA0FFC00
1A0013220D060F00ED2B000CF40AFF00
E7000BFB0AEBF20007D9000E0AE0EF00
0000EDE9E6120E00F4F700F70E0EFC00
E00008F815FEFA0010FC001E0B041E00
0500FBF70BED0100F4120004EE040100
F20008F1261701000DEB001720FE2200
0C00F303F2140500E90E0006F8F5FF00
FD00F512EC1EEB0020EF000E0AFDE800
09000D19E312F400FE1100F6050B0800
060008090F080800040400061807FA00
4000F309E825F700FE0700ECEC0FB200
050008080B051900DBF100061B011600
EB0012F70C03EF001502001E10120700
000009EF130F04001A0B000EFE1CF100
F1000319FB0FF90002F1000105E1EF00
08001107ED18F700F30D000B050C1E00
FB000EFC1CEBF1000602001214090200
EE00F126D5FEFE0006FA00EE00EAE100
FC0013EA0C0205000E0F000C07021100
DD00FC0400ECED0013E5000719EC0900
150005030922F000F5DE00FCFD06E200
F800F829EE25070008D500FF02DFE800
FE0007F6FE071500F71700F8FAFCF200
F800180B02110F00F8000012011AED00
0A000AF4F5F8FE0008F700ED03020100
F800110C1400FE00FCF2001F0C0A0900
0000FE08FBEF0700EB2400F61006FE00
0400FF27DA0C2100F1FD00191A002100
F600F2071FD0F700FFE5000A1CF82300
FD0010FA0319FA000E0D00000B060100
FE00FE1912E7F600F9F700EFFEFAF700
F80016FFED11EC0016080005F715FE00
0500130606F60D000EFC003F2AFD0500
0000F114FC030800100000FAF0F6EB00
0E00F212F4EDF5000EE700FE12F31900
FA0018041AF5F10012E7000502110F00
05000FFE10280900F7080006120BED00
F2000228F10E1100E8F300FF11FEEB00
F7000F150110100010FF00F9030FFB00
F6000CFA0A140E00F21500F601FAEA00
0000F7E70A01EF00FA0400EBF6021200
0400F9FE2CFFFF00FEF300160DFE0700
060019F80A102100051500270514F100
FF000A1AE30415000A03000B07FCFC00
FA00E20733E7FF00FCFE000613F01900
0000E81100E90E00EEE900FD08E81400
FF00ED21F5F82300D406000213FD0400
F600090200F60500FAF8000908081F00
FB0006090DFA1C000FFA003D26090A00
FC00FA03F0060700D90400F8FCFE0E00
FB00EB1205DDF800EBE500E3FEF30F00
F400001A25F20E00F7E600040E080500
F000F9F606F91500F40A001803FE0300
00D910EDF9EBF91400000000E8F500F0
00E00A02E9F60115000E000007F200F8
0000F3FE01070FEA00100000FEED0002
00EA06E311EF021C00010000020D0005
001EFDEBE9FC01F200FF00000DFD0009
00F4FCF70D0DF71A001500000810000B
0000090D1500E9FC00FB0000F6FD000C
0008E325F913FF0600EB0000001B0006
00E5D800090CE5FB00FD0000E1020007
00F3E1F3F6F908F600090000F71100F4
001717100304FB0F00E7000005F500EB
001A1DF51FF20B2200F600001B0C000E
00E2FBF6FDEDFD0100FA0000ECF800F9
00FF02120BF8F30900EF0000EE060021
0017FF07EF02FF0900EC0000030D0007
00F9FBFDF50109FB0009000005F900FF
00DEF1E107EFF20D00FE0000F4F500F0
00F70EDC19D50B2D0029000001ED00EF
00EAF7DEE9F414FC00170000FBFB00F6
00041B0919E7EF0800F2000004F100EA
00F917ECEB0DECFC00DB000015F500F8
00F0F6D9E0F00D0200390000FE1400F9
00E8FB11140702F900F70000041300FC
00221221FD22F0F500D70000270300F9
0000F7021C09F7F400F70000FF020000
00E9CDF1EB0207E1001B0000BEF200F8
000C2815FF02FCFF00C6000016EC00EE
0006190F0EDF090B000A000017FF00FA
00E908F7E416EFF800F50000F1F60012
00F90F0B1500060C00DD0000FD0D0016
000F120AEC07100D00D90000200600F9
000203EBDE001F0E00060000FDF90002
00ECF7E4F8FDF6FD00FA0000F5070001
00DAE8E4040110FF00260000F9F900F0
00FEF1F0E7E5FFD600200000D1E600EE
00F505EEF208000B00F100000E0000FC
00EE23F7FDFFF80E00E500000F0D00FD
00FEEFE2F8E8F0DF00290000D2FB00F8
0009FF0A2701050400F3000013020005
001D131C04170A0000FB00001D0600F4
001BF0F71EEB15EE00DD00000DFB0000
0000CDFAEE1913DE00040000FAFB00DB
00F610180EF50D1300BD00002406000A
00DF0E2E36D91AF0000F0000FEF7000B
00F9180607FFF7EE000B0000EEE7000E
00050C191EFC12F500DB000015010014
00F8F900E10B06FF00BC000019030010
000407DDFF05F100000E0000F7FB00FA
001107FDFD050601000E000005FE00EA
00DDDCE1F50DE9EA003B0000DCEB0010
00FBF7FAFA0CFADF00130000EFFE000A
000E0DEB0A13080B00F50000FF1D0006
00D1FDFDF8FFFC0200080000080700E9
0010F401EE2007ED001A0000F6FE00F6
00011704FC020C0E00D10000090A0015
00E814241814FB01001300001BF500F7
000C0D020BF8F2FD00DE00000BFA00FE
001A11FB1813F9F20008000003E100F1
00FA0E030512020100CB000014F40004
00CAD714DFDF21E900090000E40B0013
00091EFD1AF8F1F700050000F3FB0006
001C0FFA0A01FC0500D300000FEE001E
00CC050BFB1B111600D50000EE020009
000BFFF6EB0FF5E800020000FAFE0009
0017FF01160D07FF000500000CFF00FA
00F0DED3FC05EEFE00240000DD060003
00F7F8F302F906F000210000ED0900F6
000503E50802FC08000D0000F9150012
00A905FBED20031400160000EBEB00EB
000304F4FD0601F9002E0000FC0C000C
000C00040001F41B00EA00000113001B
00CDF425F50B0B05000B0000EBF6000B
0003140E24EF041100050000130600F8
00F5EC1CFAF8FFF000F80000F1E900F0
00F0FDFF0D0DF90900DF0000F216001B
000D08170D0E141E000200000B1B00EF
002D0204EA00F403000700000C090003
00021AF30310E61100EC0000110B0022
009CF9EEE61EFF2600110000BD03000E
0012FE080202F9FF00210000E0FE0007
00F82ED614D2E61F00030000EFFA00FA
00F00EF303F9060500150000E9F100D9
00F4F3FB0CFBF90500200000EFF100E9
00FC170A28EDE90300F10000F1FA00D9
0022F91DF5FF05F500ED0000F9EA000B
00EE02021302F819002C0000FE0A0000
0016F31BFA13DC1F00EC00001123000A
00F8071400F8F31700CB0000FFFF0014
00E807F9F304F31000E90000F6FD00FD
000CF0FE17F9150700040000050A0018
001EFB0A1317FD0300F50000160F00FC
001902200D11100C00EB000009210009
00E9F70712E1F00600040000F1F20012
00F8E11F0A14010600F40000F2FA00F9
003DE71CE72C0D0B00B4000025FA0006
00FF05051004090300030000F2F000E7
00FCF8D7E5F5EC0900030000EBF400F1
00EC02022BF5FBF1001C0000EEE600E9
00F70E0F0BF912F90011000012F50016
00FA100F13F5F9F000E60000FFE300F3
000D0D1812180AFC00D9000010060008
0016F0F8ECF7FBEE0015000003FC0007
00FED2E8DD0700F300090000051300F0
00FF25F9F502F80900C50000F1FA0008
000810FDBF00CCF500F6000008FB00EC
00FEF7F6FD24EBF600DF0000F10C00FB
000704E80010F5FC00150000051000F8
00010605F008260800EB00001611000A
000A0FF412F4050E00FF0000060200FF
0008DF0CEE03FA0900EE0000E7FE0004
000FF4050800F20E00DE0000060A0001
00E7FAED140C00F700F00000F0F9000E
0007EFEBEDEDFDF300210000E5FB00F1
00E4040B1BEE060100020000EAF50010
00EF07110CEA05FD00100000F8F90015
00F4FAEFFFF5F6EF00EC0000ED07000D
00E4EEF90509060400E00000F5050017
0015EDEA000108ED000E0000DA000010
00F8F7E506E3FE0900100000DF260001
00F4F904F70D040F00040000FD1300F3
000E21F8E8F905FE00E50000180B00E0
0006170D102102E900BA000017F70001
00FFFE0CCAFD010500180000FD050001
00F2E8F8ECFE0DF5000900001916001E
000FF22007FA0ADE00F80000E300001C
00F0F902F907000700F10000FD0200FC
00E3FC05EE01EE0500020000F2EC000F
00ED040B0EFE03F9000B0000E9F50012
00010FFD1011FFEC00E40000FCFA00EA
000B02180001EE0E000E0000051500E0
000A0E14F1F4EAD600040000E4F60016
00EB04FE04EFF10200FC0000FD09002A
00E10004D40A030400FC0000E1EB0012
00080E13FE11E103000A0000ECE300FD
00D40606E9F8130300F90000F70C000E
00FEF0EEE7EFFEEA000E0000F20B001E
00E700F10BF7FAFE00EB0000FE0000FA
002612EA13F9E8DC00DA0000220700F5
00EDFA0DB9FB00F100150000040200F0
00EA02F8E9001F0000ED000000FD0005
000301081B0405EE00F0000014030003
00F7F317FD0001FC00FB0000F5F30011
00E80711E217010D00E3000000EF001E
00FB0F14EC04FDF600FC00000BE500FE
0008FFEE1FFBF50600E70000041200DE
002DFB041821D8F9000500001E1200E9
000707F90816F4F000110000EFFA0011
00DAD41D03EAFA0A001E0000D1150029
00D0ECF1E604031C00060000EFFD001E
000F09F9F608F00E000C0000F5FD0009
00FB03F8EC05041D000A00000B120011
00E80400FDFE0700000C0000E9020011
00EC0A08ECEBF7FA00ED0000FFFE0013
000A0EFE36F11BFA000100000B0300FF
00ECF10EE10F10F400160000F01100FB
00E6F1FDFF20101A00F30000F31900F8
002BFF022210FFF900EB0000250400F0
00F6ED24FC0510FB00E40000F20D0013
00E9E3F5F40DF6FD00FD0000F60400F9
000505FD081CE20400E800000BF500F0
000305F20AFFEEF400FB0000F7F600FD
0006F6F1062305FD00080000080900F8
00EAF40908F4F2F3001B0000DDF200E2
0020E6FE141A11F600100000171B00EF
000DDA170C2C01FA00F6000007ED0004
0004060DF0FBF51100130000FF1F00FC
000A1D0A07FC0A1800080000271A0009
00EF07EEF7F6E91900EA0000E2E0000F
00F816F3FBF2F10B00F30000F1FA00EE
00F204F90205EEF7000600000A0000F2
001EF1F70D1807190010000005130008
0011FE080A2AF91500E100001FEF0012
00F00DF7FAEE0214000B0000010C00E5
000001E7F4FAF81400020000EE020004
00EA011A2330F30A00F2000007E80020
00F7E223FB1410EA00180000D9FA00EF
00060803FF00FB0A001B0000FE0C00F2
0014F7EA17F8EC1100120000FC1A00E4
00E5FB0A190206D900040000EBFD00F7
001EDEEE0C0313F5000100001329000D
0018010F1704111000010000F6F80010
00F0F10CF1EEDEF300EE0000D608000D
001EE8000EF418FE0000000018190005
00FD0CF6E5EFE80D00E60000F6EB0001
00081006D407EC1300EF00001F060000
00F10F05E605FEFF00DC000004F400ED
00F6FF04E726FB0E00FC00000500000A
0001070A0814000D0004000009FC00F1
00DC07ED0FF3F305000C0000F40500F6
00F7FBEADEF9ED05000C0000F0F9000D
00F0FBFEF5F7F11100130000DDF400FE
00D9000C151CE6FD001D0000F50000DF
000AF41808E607E800F100001D2000DD
00DE1E04D7EF0C0900EB0000EBEB0000
0002F2FC24F717F100EB0000F207000A
00FDFC0FC2F102EF000E00001D180003
0012011CD908FB1900F40000E4D900F8
00FE04EC22F01AE200BC000011D800FD
000DEB0BE51111070020000007010003
0000FD13040D031900180000F6ED0008
0021F9FBE019F607000300001C0F0006
00F305F71003EBED00D4000000F800F8
00060EFFD019E02000120000060300FC
00F618F7FC08F9FD00E4000016FE0029
00EFECF106FA04E500F80000FEF20014
0002F4DE9408EF0C00230000ECF400FA
00FA01F9DB1000FA000C0000D2E500FC
00E602F40EE2F60D00ED0000F9EE000B
00F820F11F0DE40100EE0000100400F7
00100BFC1DE2E7FD00FB000021FF00F5
00070800EFF3EBE300F3000009F00019
00ED01018B04EDDD0005000019FD00F8
0018ED0DC81FD81100FC00000E0600F8
00F30E0120FE19FC00D50000EFF900FF
00D80DF8E8F8050500090000F4130014
001006080506F1F200170000E5020015
00022B03E81D090B00FF00001E0000DD
00FB14F504FE01FE00F1000005E500F2
001DF2F8EC13E7050029000006160016
0013EC103A02190200D6000016010014
0006EF1F1D16080000010000DD080015
0009FBF8BC181500001C0000F51F0003
00F6060CF402E9F200F00000010A0018
00071CFC091AF80700F2000012E600F9
00F80B0119E8030E00F90000FAF40005
0016110C36D6ED0700EF0000090E0001
00F712020202E40000F50000FAFE0012
00FC0808DEE7F4000004000001FA00EB
0006000FE825E41A00E7000018170000
0006F60308F1160900010000F2F80014
00FAF2F7F107030F00120000F30C00F6
0011ED141502070200F00000E7050005
00F40812DC071AEA0012000000FD00E0
00FAFD1308DC27EC00FF0000E80600ED
001AF60909071AEA00EA0000090C00FA
000106000028FF1F00FA000014050007
00FFDC12FC051810001A0000F7100003
00F903FFDF121DFF00090000EA0B00E8
0016F4F8FBFCF8EA000000000C1600EC
00E90015030A020100F4000014F200F8
001E03E70206EF0C00F900000DF900E5
00EF0CF11516ECFA000C00000DF200FE
00F6F30615F5F90A00030000DA10000A
0004FE001D1E1EE7000900000EF800F3
00F0E6F21F11E40800160000EA07001C
00E400160F19150C00F500000D130008
000B0FF7E0F1EDF500F6000009000001
000202EBFAFBF90800020000F7FE00E5
000206F8F8E60B1300F70000000200F6
00F0FEFCF803070700150000EC0500EE
000702F5F50709F100F300000AF10000
00FAFE100828000800F90000F2F90003
0012F3ECEEF6FDFF000C0000F00700F2
00FBFF19F6D817FE00E90000FFFA00EE
00F7DD09C6FADEFE00050000CE0F00F6
00EFE30E1E2B0AFB00150000F4090006
00FD02EB13F70508001B00000A1A00DA
0007FFCFFF1E0915001700001B11000C
00FEECF01E0505E900170000F413000A
00E80C01ED210AF900E600001FF30002
001001F9FBF8F90A00FA000003090001
00FC0AF91C03FFEE00020000F0010006
0012F80209FAFCFC00EB00001CFD00FF
001CF908B5F6030100F200000FFA00EE
0004FDFE06100C0B000500000AEA00F4
00F007F1F9F504F1000900000A0100F6
00F8050F05EF080200F5000008FB00D6
00070311F0F6FDE900DD0000DB0000E5
00F704EAF60106FC00200000EA010015
0001F811DF06FC0A0003000002EF00EB
0016FC07DEF3EB1600040000F11400E8
00DF02D52417FBFB00F900001C08000B
00EE01F810F0FC00000500000212001C
000115ED0201120300FD000008EC0012
00E9FDF6050B01E800FA0000FA04002A
000108FAEF0811FB00F800001A04000C
00140005EDEB0A03000D0000F4F20009
00E7FB02FD070AE200C90000E2D90001
000BED050510060A00020000050800F8
0002F41ECC091702000A000000FD000A
0001FE13EC0DDF0700FF0000F70300E5
0013FDF9F7F8F6FE000C0000E51100E9
00FF021221F910090006000015DD00D9
0022050E31EB1FF700F10000081500EF
0009F9EBF1F3EAFA00050000D8EA0022
00F0FBF6FDFEFC160017000001F100FD
0010E9FAFBED13FC00EF000016FD0015
00F90CDBEEF9EFFC00F10000100B002C
00FD15F4FCF6FD0000E60000030900E4
001321F4FA13130F000200001AFB00FB
000FFBFBFCF8F20200060000EE1E0016
000A0106F21804F50017000014EF00FE
001BEB0D1FE605EC000F0000F70D0025
000212FE08F6051700FE0000F90300D9
0009FE00FC281E0100F8000014ED00F3
000CE30D06D715FE00FD0000F303000D
00070E13B9150DF500090000130500D0
000814F7DFFF010900F20000040000E3
00FAE61119EFF1EF00FD0000E9E10023
0014F9102AED20150008000011040028
0022D3EEF707EA0100030000E50D00E2
0013FE0CE6FD19E80004000012F00000
000BEC150DF502EF00FF0000FCF90021
001BF9EBF20C0729002F0000FF250002
00E01107D705EA0A00FC0000F8FF00E3
000DF21823E0FD05000B0000E50F000D
00FBFD170FF5FE1000040000D5000012
0027F11528E501FF00ED00000D0100FC
0031EC18240A1DF600070000030F0016
0001160A12150B0700EF0000FFEE0008
00FA0CF9DE140F0700030000120E00E1
001BEFF702F117ED00E90000FEF400EF
00FF0D03D214FEEB00F20000FF070008
00E20EF8EB07FCFC00010000FBF80009
000EF0F216000CEE00FA0000FAF10008
001F0100140A060F000C000028010010
00FAF319E501F11000080000FD140029
000DF2F2E406FCF800ED0000010A00F5
0021EC0414E006E400E80000FCF60013
0000061EF90D02FC00170000E4FB0002
000EFE0C17FF070600FC00000BFA0004
00F813001AEC010D00F10000F00A0036
00000CFC0EF60A0C00F600000C1400FA
000609FC28E40AE300D90000F4090036
0005ED02FBD0060600FB0000F81200C2
00E708051F07001A00FB0000051C0029
00FE000EF80D02FC00FB0000FD12000E
0001FBF8F1F0190000070000170B00D3
000002F8FC0E0E0900FD0000ED0700E3
0007F9E4EE0F0A0B00100000F91000E2
002408100CF7FEF700F60000F3F5000C
0006F105E50DF20800030000FA0000E7
0011F409FBF80D0E00120000010700F3
000D1605FFF20D0000E20000F4E900D2
000805DEF4F4F5F5000600000BEF00D4
00F0FDF91AEA05F500F40000F9190007
000E1A021503051500100000E20600FB
0008FDFCF91A010F00140000DEFA000C
00E708E1FAF809F400FE0000FF0A001B
000809050BEB1CF700E30000FCEA00EC
001A10FCF8FB1B0F00030000180800BF
00F5E00A08FDECD700FA0000A70D0037
0017FC0104EC220000000000FC0600EE
0000FC0A05F80DFF00100000180000DD
00FCF0FAECF0010200F80000010300F3
00F2EEFC0DFAEDEE00090000FE06001D
00220103FDEC160100E40000F5E000B3
00100A1107FF0B1100E80000041E00EC
00F9FE0513E6FEE7000F00001AF20020
00051AFDFE02F70500F4000017DC00CA
00080CDE25ED050D0008000010E500E6
0018EE0913EA0B0400030000F210000F
001AF70C2BFA1D0800160000140A000B
00FCF7F70412FE0A00FE0000F6FA00FD
00F4E9F9FF050AF100070000FDF50034
0014120C0D0C1D0400EB00001EC900C9
000819FB0CF70EFD000F000017F700DC
00E9E609D50FEDF800100000B6FB0008
002809F515F0140F00F80000040700E2
00F0000412E615090015000001F60007
00FBEB1A06F1050400060000F60B0001
00FC00F8E00BF8F6001D0000EFF700EA
0007130002FC2C0A00E6000019CF00A4
00120AFAF3FD12FC00110000251D00EF
00F2D7FAE919EBE500060000E31C00FD
00EC02EE1BE2090300220000F6E4000A
00EFF1DE09F609F0000D000013E70017
0005F6F1F103F00D001C0000DA0E001D
00F001EEE10EE4E500F90000EA150008
00F91B1605201D1400EC0000ECF600D6
00ECF217010B090D00130000FF0A00EB
000305F60FF90DE800F10000F9EB00D8
00F2F80B1FE91D0500110000F905000A
00FD01FEDC0508F900ED0000F70300F1
0021120C1527101300E300002DF000DD
00030AEA1AF0130000050000F80D000C
00090F0AFD0B1E0300FA000015F800EB
000CF2E8E5F9F5FE00110000090F00D0
00F506073AFE150200F5000008E100F1
000C18F612FF160D00170000080C0015
00F5F4F6F1FDED0900F80000F9F80005
00FEFFEE22F217F300010000FEEF000A
001101EF0FF81C0300320000FD130007
0007F818FC040A070011000002EA00DC
00F2F8F3D20DD10500050000F61100F1
000714E7F614020A00010000FDF900F6
00F90415F708FB0B00FA0000EA0400F0
00F3FFEF22F015F900F80000FBDC00F5
000B02F31CDF14F300F90000FEF90003
00F8150417140B1800F90000FFEE00F5
000404FE0C0EE11100F4000007FD00E4
0021FAF605E315FD000400000F120009
001804FD14EDF7FC00E30000070A0010
000703F3FE00EB0800E10000061000F8
000A1EFD2A031D1400F200000AF900D4
001810F91DF2090F000A00000D1C001B
00FFFBFBEC15E5E800FB0000130500D8
000B0AF6FBF0060C00FD0000F90F00DC
000EFBE5EAEB050800080000020E0003
00040E0C0409FDFB00EE0000FDEA00F0
08F61CEDDE07EE0100000B00F300F21A
15F221F2F016F8FC00000C0011001206
11F9F403F8F20601000005000E000610
F7F610FBE10EEAFD0000E2000300F712
FDEEF01401010D1700002200FA000304
F70924F1F0090B1800000A000000F022
EB071405FDFB04070000F300F900FBFE
1322EE03FFDF08F20000D000EC00FEFC
FE0CDF1301F4FCE40000C0000B00FA02
F9EDE816EE06EC0C0000D2000300F802
01F31110F7E106FF0000FA000E001112
F6092601F60F0A1C00003200FA000307
0BFE0602F111E00000000A000300FF05
0FF5F00916FAF7F90000DD00FD0003EE
0B06EF130509EEF20000FF000000FADD
0F000104FC00F6010000FA000900FE04
0515F8D8EC0AEAF1000015000000FF07
1BD13DECC91E0CF700000E00EE000024
F2ED0414F712FBFD0000F4000A00F41C
18F808EDEF07EBF50000120000000802
05D3FDDC19E40BF400001200F600F9F2
DA06062AEB2CEE150000E3001700E625
EEFCF4100B00FAF80000DB00F00000F4
12F2D5E82FD3F7F80000EC001A0029DE
10FFFD16F3F4FFFE0000F900FA000310
F70ACE360DF3EBEA0000A3000A00FBF9
EFE8FEE408FEF4F200001800FA0004F9
12031EF902171B2D00004500D100FAE9
F6050309EFFEF5100000E9000C00EF24
0CEB06FC05FA09EB0000EF00ED00FAF9
161CEBF627D717EC00000F00060018F5
11F4FC03FFFDFCFA0000130013000708
FF0011FDF005EAF9000018001100F414
0AE90A06FD2C00000000E7000A00F733
1DD0ED262F10F60C0000E400090013F0
02FE19E50CEE080F000008000A00100E
26CA00CF07E006F60000F7000100FEEC
F7C4F73C430AFC1C0000DE001E000406
EB00F60AF9FFF2FA0000F5000E00FC03
15E00AF20DE6EFF50000ED0018001DE4
0D14FB10EAF70B1400001800F700FEE8
0DF7C41CFCFDE7F700009900160018F5
FD091BDB0DFEFA05000019FFEB0015E2
23091A1B140B2A140000F400F2001BF3
07001213020E0B050000FF00F900FBFA
FD0AF501FCEB0D060000FD00F100FAE7
1CEDFDBB12C3FDE90000EA00FF00F6F2
10D40004280613020000FD001C001205
F6E1F6000D180B0F0000FA00FA000E19
091DF40C1D24F6E80000A8000900F61D
1BFBF5171FFC040C0000DC000C0007F7
0A040FF5FEF11100000001FFF30003F2
04F302F1FFF402FB0000D800FB00FCEB
0CDFF8011A1D1A020000EC00100000F9
E70CF803F705000E00000400040017F3
FE140F0323EC01F30000F30007002707
FCFE09F1EBF210FE00001800F000FFEF
0018E306FCFEFC0D000015001D00F506
EF0D05FD041606EC00000B00F900FFED
2D14EC3909E2FD050000CC001600FCFD
EFF2FC001402080B0000180006000909
E218F4F8FBDD1D1A00001500F30013EA
260115E82505F6D60000DF00FE000504
1EF9F4F30E0D0E050000F400070005F6
00F2F8FBEBF70D0A0000F200FC000B09
CF00E0FA032405F30000BC00EC00F512
FDFB0B0312110C060000CC00F000FAF2
ED110517090D0AEA0000E200FA000B09
0B210902E401E1D70000E1000700F8F5
0EFE1407101C18160000F2000500F617
E419FFF5FD14000A0000F7000700FC0E
22120C11FB01F4E90000CF000A000907
E02616EBEDF8070100001200E9000D05
FF0EFAFBF0050405000008000700FF1A
CC12E7F9F60D0CD30000D900F50009F8
060D0303F3FA191C0000F50008000614
0AF2F2EA0F0EFAFC0000FC000F000ECA
EB1805EAF2F9FB080000FF001900F30F
0305FD0A0A15CECD0000CD001E00EE0B
0611FB06F5091C000000EE00FA0006F4
EEED2FF2CB1D080E00004E00DC00E41E
EED80B07050C010F00002800F1000021
E5ED14111014130400001C000C000B04
E7EC0E0E0EFE0BFD00001200E900F901
28F9DB011BC5FB080000D300020023DF
F70B1312F61B01FC000004001200F30E
1F081FF4F0EE130200001000FD00ED05
3CFEFDE0ECE9FEF40000EA001200EFFD
0F1105FFE2EFF1F80000FD000600E417
0506ED03EC13E90E0000E0000E000E0E
031304FEFB0A1C13000008000F000DFB
131CF10109FA20FE0000E1000C000DDD
FDFB0A00EFFCF10400000A00E300E3FC
1A30EC1F0CC813FC0000BF00F300FD0D
39F8E3DA1AB90D030000DD00300030F5
06E410F7FD1013010000140014000F04
DDDC14D4DA20E80000002C00E500B809
D9E114FFD70210DA0000FE00E700F604
FBD9EE0DF5FDF6F40000EB0005000AF0
E1FA00F30D13F71000002C00DF000CF4
22DBFDF41AD11EFC0000F500E40028F2
E9FEDE1EF915FD150000E200E9001000
0F12F8EFE90607000000F300F300E10B
38DB13F3EBF3EB0F00002100E700E3EF
0CEAFCF7FBFBD00000000E000F00F32A
F9F8EC23E1F0D3EB0000DB002500FA01
FFF9021E041008FE00000E00F600F40B
1C04F4F71BF92A170000DE00F3001404
EEE7220AF419DF010000FD00F700EC04
08EF0108EEFBEBFA0000E8000A00CF21
39DCFFF818C30B0E00000500F7000401
04D90BE9010F0EF70000D700E000F4FE
E5E3F319FE2ED10E0000090007000419
F8FB1112011C07E800000F00F30015FA
08FF0119F60E001500000C00FB0011FB
DDF9FF0D0AFBF90700000DFF0100FFFB
0BDFF5EB07EE08DA0000E100EA000BED
F3FBD91EFFFDF5FC0000C6001B00FE03
1CEE1516E302FEFF00001200F000D6F0
1EF006FFEFF222E80000F800F20004DE
FAF2F50CF8FFF91500002600FF001003
1F07FF0803D9F2F70000E500F80005FA
0EFEF2071009FDFD00000B001300FD1D
25F80EF2F22428120000F000F6000714
E8FEF53E1A00FD050000E500E90021E2
08070B17EBF0ED1300000F000000FC01
05F516F70F01FFF800000900E00007F5
000D060E01F7170B00000000F90010F8
ED05E1F80601F8FE0000E6000500080E
00EBDBE3FC09FEF90000C0001300150D
1021041A21FDFD0300001400230001FC
0508FA0502FBFBFD00000200F2000EFD
FDE9F2EB07DC04E10000FE000E000103
13010CE9F209130600002100FD00F304
09FF071101FBEFF200001F00F70002FA
E70B0318FE0508100000050007000607
FF2F0E01E80407FD00001E00F4000100
E7140CEFE4F8181200000C00E5000EE5
1ADC020513FDED0C0000FE001500ED23
0DF5F8141BF6EC120000FC000700F9E7
FBDDF712FDF813010000E100E20007ED
FA180C29EEEF081400000900FB000B12
0D1203F3F013F0D700000100090000F8
070DEEE106F509F9000003000C001E07
EDF60909F412F6FC0000DA00F30006EC
D6F3C7F4FC010E040000B400FB001C28
E604EC150E03F5060000D80000000BE7
2B00E7270A13FCEB0000D1000100FE09
03F8F6EC0807E7DD0000DC000500F2F5
04F715F9ED0D0F2900000F000100F71D
0C0E050FE50FF9FD00000A00F400FF04
FFFD0506F80FE6F50000D4000900FCF7
D70B1304F001E60E00000D00ED00FCFD
E82C02FC0A02FE020000E600EB0001F8
0EE3F7160EF908E70000E4000B00FC23
19EC00FEFE1606E0000004000E00F3F2
F4EB11C8EEFDF9F50000EA000600010D
F61AFD16FFF014000000E600E900FBF9
EA0DEECA1739E6D30000A5000E00FFFF
DAFFE5E7F401F7060000F20008000F18
E8FFF5F6E723031700001B00F700E606
01FBFAF4D91A1A32000006000D00F023
E80A031219FF071100000E00F700F41A
FE0DF400EA19242B0000FA00DE00FBF8
2403EDF107E713E90000E300190017FD
F30FF20F06150E0F0000F4000B000115
F10416ED0013FC020000FB001A00FCF9
E8F519ED1622DFD2000019000500F500
FA1617EF1B18EAFA000024000E00F40C
E8F1EE11F80BDFF20000FB001500F814
0B0F0101FC1B03070000E00029000EF5
14E8FDE709FFF6F80000DE0026000F13
F00407FFE101E8FE00001F00E800F107
161315FBF629E7FF00000E000900F501
0C0BF3E71CE9E9CA0000F2001F0018EF
04F0DD2236E11A0F0000D700FC001AEF
EAF504FFFE1D0C0900000F000B00FBF3
C716F10CD8FAF4FD0000F000F000080E
F3F5EA1CFDE9FAF10000CD00FB00FC0B
1033F7130800161C0000DB00E2001A0E
FBF2171301F814F9000001000500F9F0
EF25D6F302D7EA110000DF00F300FFF2
F60E04E3F61204050000F8000200FBD9
FADB20F11915EEF400001D000200F2EB
12F800E7F806E5FF000008000100E319
E4F6EBF81700C6DD00000E001B00170C
170B120AF800F1E7000002001700FBF8
02F911E0FDF81CFF0000F900FC00060B
E3F2130BE50BEDF20000F800F000F90C
FCE719E7D817E6F300001E001700C519
FBF711EA111EF8F800001A000200ECEC
C817EA0AF6D903EC0000B500E800130A
03F1F10F030CF50A0000E100F500300C
E707080A05EAF10D0000430000001605
0B20FD22F0EFF2FC0000040008001B09
FA2DE02505F9F9FE00000600F7002000
F8FF12FB050DEEF700002400FD00E7DA
090BFA04FBFB170100002300EE001903
0304E41704F002FB0000DE00FC00E8E9
F9F117132705FDF300000600FC00F3F6
14D402F3EDF6F8FC0000E9000300FF0B
0DF7F600FF0BED0100000700F100F8F3
0EF712EBF014F503000019000F00ED13
03200D0DE4F3DCF400000000F200F8DE
10170214D30A090800000300F700F307
FBC50EF9F03BE0E3000005000B00CBFC
00EA020E100A03FC000021001700EFEE
0B2CFFEDC7F5F1E900003300F900FE01
E60505E8FC01F7FF00000F00E8001017
F8280605D5090BFB00000100E90000FA
FC100908F013F9020000130001000408
2522DCF70B0ED60900002F0025000B23
D8DBF7DB0420D4F3000004002600EE1C
09121C0EF6020FFE00001000EC0005DE
00CDFA04070B07F70000F70007000312
EBEBFB07070BFE080000E500F000E3F7
07DAFDF50BE101020000F40008000B00
EB1F001AE0EE06EF0000F700D300F4E7
FCEFEBE9EF0A13070000EA000800001E
1913FD07F70E12130000D500E60003ED
05FB0A14E7E21AE80000D800F400FDF6
0CBFE80E1906F6F90000E5001A00F5FA
FCF9FBE60C08F0EE0000D50000000A14
FCF506EDE604F2FC00001B000900F811
E7371118ED12FDFD00000C00F200EED9
E62B1E01CC0B232A00004500CA00F5FE
F820F70F000C030900002100FB0005F4
38FF1E0EEE0EF71300003C0003000421
00DA01D7F924E8E20000E70026000017
0F260D2BD80E1E0F00001400F700FFE2
02F70913F815FEFE0000F3001B00F0FC
03F5F5FA0D1017000000CC00030003E5
E50DF60C29F4E9F60000E6001200FD14
DF25E9FB1EE906020000DC00CB0002ED
0FD6F6D907FA14030000DA00060000FD
F803FEF80217FDF60000FE001A00040F
FFF8FFFFFBFA0EF600000B00F00011F1
02DFF81D05FDFEEC0000CF000200FE13
F6EEF006F30501110000CE00EA00F205
0114F418FC0306ED00000100FF000507
F3F604FBD308171200001E00FC00E61F
F10900FDDC100D120000E0000500F226
FB03F4FEE1FE13060000F100F200E1F8
27F6FAF1DEE81A0E0000AF00F400FC0F
DBFD0FE81023EAE70000F700FA00F9EF
0A13F1FAF205FFF50000E70018000F0E
DA13ECEE1CE1E5F80000FC00270003F0
FE0326E4FE2FEE0A00001F00F500E10F
F6070A0F16180305000006000D0008FA
0806060A0C0FE8F800000000F600F90C
07F906F207FE11FB0000E9001A00090D
DE11F5FE17FEF0E30000EC001E00F9F8
1E0704120316070700002000030001F6
0A0BEFF92EF5FBE5000001001D000EB6
E10A11C9341FF9F0000016001600EEBE
F9F2DC0BEAEA1E040000A500F900F317
E801F5F6E5F3021200000B0013000F24
01F40BF6CAFBFB1A0000DD00FA00F433
F217EF1DE4E023130000D800F700F81A
27F9F901EEF4FBFB0000C4000400F837
F1ED21E9EB08031A00002F000000E7EE
F22FE607F7D501140000ED00150018FA
0403FAEAFDFB160500002000F80004ED
E8E61A192202DF2B00001E000300FC06
1E1006F60F16E40F00000600FD000BFF
F206E1191404DE020000FC00F9001D20
FFFE0DEC00EF070E00000000F70008E0
E71BF3F426F6DAFA00001F001D0010B0
F6080921D70EF70A0000FA00EF000224
00F704DA1D1602EC000018000100F2E7
F6E022E223170D0F000034000A00DAD7
EE06FFFAD8E3FBFF0000E100F600F72E
FE18020FDF21E8F10000F500EC00190A
05031EE5EAF0150600001300EA00E7F7
F811F4FCD101F0FF00000A000F00F713
1C0505F6CF05030A00000200F100111F
F6081505E305F60A00002200F700EAF6
0000FA04F200FCFE000009001400F3ED
17EB0201E9F30CEF00001800F2000DDD
12D5FEF0F9FA000A000010000F0017FC
12EEF9170F07E1FA0000F900E80002EE
FEFF04071902F60500000800FA00F400
13E10CF2FFE824070000F90005000104
031D09250813FD0900001200FD0004DB
EBED01EC06FE0BF700000100F900F1EE
0AD4FD050C2E09F20000F200F700E40E
FE0603DDF7F2F210000007001900EB18
EAFE0FDAC704F10200001C00F900EF05
0C04F3F805FEF70300002500F80009F7
0325080DE70E04E80000F6000F0001F2
FB170524F31016F700000200ED00F0EE
FD0BF5FBE3F6F601000002000500F30F
0B0B03F4FEF4F00E0000E1000C00EE03
E10709070314F40400001500EC0006F1
1DCDF70219EF14020000D9000B0015FE
FDE105FC0018010000000B00040009FB
FCC3E6E707FB18050000E60002000F04
D8EF03160D0BF7F5000018000800F6F7
1DDB0BEAFE010B0B00000E00F300E5EC
024B1B0D0105F32500000000E7000CF5
E1ED0D10160F130F000011000C00F7F9
08C0E30B23E902220000C90005001A02
180900E7EBE4ED110000EA000E00F4FA
0B070E21E11A0AF800000100DF00EB0B
EC2601FE070CECEF00001700F600FBF7
0115FE1F01D3190000000100F000F201
0B2E0318F80316FC000020000300F4E8
F90800F0F5F40A100000F400EB00E6FD
2AFBFE04FDEBFA290000C400FF00E513
E61302FBED000202000010001700F203
FADBFBDF07FE08EA0000ED0015001718
0EE509F9F7FB03150000EF000C0003FB
EAC1DDD7F3EB04EC0000E70006000E07
E618F4F70B01DFFF0000ED000A000619
10DFF5FEE9EF170D0000DC000700F2FE
FA140F070C06ED220000EE000B00FA21
1206F0F706DEFBEA0000E9000C00040D
F9D6F5E701160EF40000D7002100040A
100F0704D801FA0D0000FA00FE00E1E3
0D07ECFD13E5FB050000FA001E00F907
00F90A04F2FB14030000DB00F8001210
E90F1D0CEE130CF800001700F40006FB
FBEA07F3F40307FC00000800F70003FA
F209FFF70CFE0AF50000E900090007D7
0AF1F30207F514FD000026001000E5F3
FD1607FFE10703040000FB00FB00FDFE
0314F3041009F9F90000FF00090012F8
10FE06FDF3F5F4040000100011000E04
0B14EB03F2FAF2FC0000DE0015001410
0BFF010CEC17040500000000FC000013
F520F8FB13FA080D00001400F60017D9
F4F808010CFBEFFE000017002100F1E8
19EFFA1003020E1B0000F40008001D01
EC06F6E416FCE7F000000A0006000EE2
FE08F9E6041C0E010000EC001F00F50B
F50607F7040D18F80000FD00F4000ED0
0425FEF813F60F13000009000E001200
F102F916EF15FAEA00000B00F7000706
080018FCE82B07FF0000F700F700FB1C
F909F702260D0FFB0000FC0013001CE2
0F0008FD12FA0D0600001C000D00FDFC
0229FD21051808F300000B00180013B4
03110A16180EF30B00000600090001FE
FD0EFAFD0AFBF6050000FB000D001A02
F60101061D00140A0000F70015000700
0210F30206070B0C0000FF00F5000F15
EEFFFCEB25F5F80F0000190000001CE2
0015F4060EF5FF1B000015001D0006E3
EF14FF12FD0803170000F700F0001115
DDF7E4EC31E7F4070000FC000D0013F5
0C1107E6F6FA08130000ED00F500FE12
0F1B0509F2FAFD08000002000000F4DF
0F0FFE21090718100000EB00F1001603
ECF8E6F60BE0FBE800000B000B000CF6
130AF917F20E15FF0000030001000810
06FBFBFD21F801FE0000070009000FEC
1811F8F60FF5020D00000500110006F8
E200EE0C0606EADE00001C00230000D5
F6FB1AFB0A05FF1800002B00090002F6
1B08FD0808110C110000E0000C00F508
01FA06100403120E00001000F6000AE7
EBECF310FA11FCFD00000F00FA00EE0F
ECDFFFE129ECE510000007001300070F
1122F2130BEE052A0000F8001900F908
F6CE0003F4121DEC0000F0000700F0EC
F7E40AFDEF01FA190000D900F5001006
0AFEF9FF0BF7110C0000D40018000A2E
F110F112170F00FB00001A00FF0000F4
F8F2FA1B0CFE0702000012001000071C
EFFCF00405EB03F40000F70002000CF1
0110E503080905DC0000F900140017EE
04DCF3EB12E30906000005000900FBF7
2612FD04FAEB031D0000DA00FE000BF4
FEF404E9FC12EF0400000E00FF00EFEE
F9E21DED0711060900001500040004FD
0EF80901E3F70F1A0000FA00F100EE15
FEE2E60117F404FE0000FF00F1000CFF
F3E60D1A11140E0600000D00FD000F10
DBE804E508EDF4110000070014000205
102F12FE03E7EF170000FA001200F613
DFE104F9DE280BF700003100F50008F7
02D70D1A060F142000000900DB0006FF
07F70516F1010C1E0000D9000D0011FD
02FFE91724E5F8F80000ED00210015F4
F515F50A0511FEE9000002001300FDFD
DF01FEFD0305FAF10000F4002C00EB06
E003FC060AE203EE0000E600110009FC
07F8F7FDFBD9FA020000E1000A00FBFF
13F7F6FFFBF215240000E5000900F204
C8FB0A080900FC020000ED000C000405
EDDC04F8FE120B080000FF00F300FB17
0DF80103E4F6111600000F00FA0002F4
0DD4FF0AECF315040000EE00FE00F903
0A00FEEDF21207F600002B00020003EB
F5E612FBF8FB150E000023000E00FE07
16101910E61209330000FA000800F822
FFEB01F51511FFFA0000DB000E001614
F6CF0F04E51C140B00000F00E80005F6
08010404E60C1007000003000500FEF4
FDF5FD070EDCFB140000C8001900040A
F2FFFC0013001203FCF8ED081200F20C
DCF5FFF1F4001F02FFF4E701FE00E304
06F90007FA00FBFC010100F4EE00FD08
E1FF0AFA0E00FEFCEDEAEB0312001B01
F523F808F800F6FE0400E4FE0400F7F5
18F30B0E0E00FA0AFB0F13FE0C00090A
1703F9060800FE0EFF03FC00230008FF
1BF7EFEE0F00F1FD0C070D0C0C0033FB
1BFC15F8FD00EE00E419ED07F40010FE
1A070BF5FB00EBFDED09E8FEF6000F19
F922FA0808000BEF1EF9E4080900FCF9
EB0E0822280008242EFC18061500EC0A
19FF09FB0300FD03F10FFA050E000211
1508FDFA0500F704FC10EF02120017F0
F124F4EF0600F20CFCF7DE0BEDFFEAF9
0DFFF7000500FC00F90101FEF800FA00
F3F40B0A060008FED9FD1AFB0100F11B
E9070DF5020011F412051BE92B000F01
02FC24FAF800F6F6DE14F3041000F717
FD1DF30DFC001B0204F217FE2400FCEE
05F2FA0B1C00F70502DCA8170200F0F3
0CFD2FF2F000EE00E922200516001937
16E10FED2400EB0DFA1BEE0409000402
3409F2051300F50006E8B8190200FEE5
1F0B03DB0500EAEDE203F0FB15001507
1CF618DDF200D9E6D41E14FFC900120D
FD04E6FE0F00FF0A07EEEB1401FFDEF1
F2EFF5341A00070446FB03050000E706
1F20F60F0400F40002FC0E030D00FC01
13E8E0011600EA0C16F1D80E02FF0DF3
030CD40BFC00EF050D06C114FFFDF7F8
F9F313FFFE00F7F8F608030FF300E106
EBFF00FCEF0019FCF1FB12EE0100EE1C
0CE4170AF400E9F8EB0E27F0F100030F
150F0EF6D600EAEFDD031DFFF3001A19
F709F416F9000E0BFEF810F4FCFFF108
F8C9EBFE0F00080802E5D602FD0007F9
2D1819F6DD00D2FCCF20210602000C21
0A1402E61A00F5FAFDEFD70E02FF070A
00C6F5FC160006052408E3F80800F9EF
FC05EB160800F9FF1C0AEFED200001F8
18FD10D30000CCE4E0110605D8001507
03EBF1301500180E22F1F30F0EFFE4FA
2BC7EE021E00F50927242D071800290F
0D0EF3110000F6FF120D07090A00EF0E
0F00DBFE14000108FF03F8010CFE18EF
F7A3C0FAF60001FE05FE8BE7EAFEF4F1
01060C19FB00EC0AEEECFB04FB00EB10
FB200B1AF600F80601FDF9FCFF00EEF4
07F437DAED00FEFDC021110B04002806
280E030BE600E6F4FB1407F2E9001A06
FEF7F72208000A0702F308FDFD00FBFA
E6BA03EDF5001202EC0DE8F0DE000FFB
192010F6EC00F70BEE18EF19FD002E11
0505F81806000415F8EFFB0C04FF110C
12A6FFE900000D1A2302EF020A000901
FA0BD12307000C071E00F4031F00E7EC
FF0A2106F100FB0EFDFEFFFE0B00ED0A
F9ECF80319000E110CE40B030400E2E9
4BD6F1F10D00EEF9FF201AFCDF002721
05FA040FFE00000E25F9F6020400F1F4
0912CA16FC00050E14FCFDFFFFFFF5E8
03A3E6E5ED0027FF15FF02DCEC0011EC
FA04121BF6000E01F9FDF208E900F606
FD060AF60600FDFF0BFCF9FE0500F7EF
100A25F4F000E300D61206F6ED001A18
F3E50FF60D00F600FC0D0DF60100F700
06F420080D000D08FE160906F10012EF
DCC806ED06001D04061216FAD100E700
0BFD0B030700030E081DFF1000000709
FF100209020006FF0AFA16150200F7F3
0ABBEECFF2000E01F9FD01F9E900140F
E6F9F5F80500030410E60D041900E7E1
EEF304F3EC00FA02FD0B00F70C00F704
FFF1FAE70800F2EBE3EC1104FB0012EF
212BFF0C1400F60E0B1A081908002303
F4F3FB19EF000A0C08FB0202EC000A02
FBF102140800190BFCF0F1F60900DCEB
FEFC1ADFF40026F8ED0911F8E300EAFC
FE0B0BF1F900060002120401EB00F5FB
F009F70F010010FA000622EB3100FC01
EFF1F8FBFA00F80202120DFC0800D813
FE001AF5E80005FBEF1802041B00F705
FEFCF606FF000BFD1AFD120B2500FFEE
0013E6EDF300FCF0FBF2E6FFF5000FEA
FA030C14060007090D1C0A0609001808
00EFF8F209001A050A140708FB001F10
1406E8FA080008F111E0FB1322001B05
080BF40509000205FF02090C0C000314
0F1A0DECFF0012F70307D5F5050024F9
07F9F8F10400FB0611F91205ED0011F5
FD05E5E60B00F9062108FFFFFCFF31FB
F501070408000BF7FA0BEC02130009ED
31F8ECF61400F2EE13130D09FC003AF7
1317DCDD1A000B000DEC0217CA001801
DFFEF1F2E90004FA0920FCFA0D00FD01
CE1D1F0FF7000AEFF2EB0BE7FD00D803
F0EC1FFA1600F50CEBFEF5FC230008E4
15E2F210020006171A1FECFB110004E6
F9E5EF220C000B0116F613F70D00DEF0
0DB1D4ECFA00F8FC07F6F7FAF3FF0B05
02F51017E600F114140EE7FB1100EF09
0EE6F9D3F700EDE1E50813EEDF002D16
0DFCCE0C20000A0216E400191B000206
0E2E050B0D00090D02F9D6F41200CCFE
031BEECEFB0003EDE7010BF9E5000BEA
FF0C15E8FD00F6F8EC0C0801EE00FA00
19F7CF00EC00F409190715FCF2FF1B04
FC0FF005FF000408FD030DF60E00FBED
130808EB2500F9F3F417FFF8190017FB
14F5D5ED130011F30DF8D502F9011118
F7E40917E800F00C0AF9D5F9270008DA
042122E4F000FDECE5FC0DFDF700EBFD
09FA0105D9000109152010020100EE08
0DF9EF19F5000211250B15FBFD00F4F3
10F5F720FE00FB1AFB06150B0500F3FF
F8C3DFF50900FEECF1F6E8FCE8FF14F6
FAF516EEDF00E5EBF51A0BEAF3000C01
FEFF0CF10D00FEFC110707ED01000103
ECDEE0030500FC061412150713000CE0
FC1EEDF7050001FB150A03060700E809
30F3E0080D00DBFD0A07FE080A002AF9
F6F802EC07000B0A0C0AF106FF00EC15
14D4F2FEFA0009FEF8000AFD09002D08
04E800F8D300E7EBFF1A0301FA0015F9
1402F5DA0D000BF1130B20FF0300FF10
F8DCE7FE09000A0912FB1310EE01F30B
08000713F700F4050B0BFD04FC0002F2
151C0105F000F4F1F5051209F90026F2
0D0D16F9FF000D04E6F1F81807000EFA
0929F6FEDE00FFEEEA0B2016E8000125
13F300FAF2000AFFFE1E170B0E000E1B
F7D5D8F603000D0E0FF411F8F100F0FE
020A1BFDFE000A010CFBFD05180004FA
0A04EB0EF8000AFB1C020810F300F012
17DF0906D800EB0B09FFFFE910000CEB
0302FD1908000C0306F5FE092AFF06EB
02F3F42BF500000BFFF3E3FD2D0012D7
13DC08E4F2001303041FF6F2E500FB05
00CAE41B130003F827FFFAF1E900F107
12F5FBF9F100F0E407ECCEF9ED001003
140F0400F100F70B0A05F5F909001202
F6D6D50602001E1527D0130BE300DC01
FF0EF4F303000C0F2204F61AFA00D804
EC1404010600F8F6E50613FA190006E8
25252008F500EDEDE6E7F70D1E0036DD
FBFF0D0F0C00FF03FB05180FF5000605
15EE02CCE70008EFF01D21F7EF0022FC
D5FC08DD0200170016E011E2E600EAEE
0B0BF7160D00F1100902E90F0600030D
FF1A03FD0900FE06F918F01F1B0012F7
04EA0FE5F200EBFF0FF80DE7F200F1ED
E6ECE7000900FE1107F608002700E8F7
0CE4FC030300F6011EF6F7E3150003F7
10F403E2F90006F20A07F0EE09000B02
F22CFCF40100130E16030E07FD000105
0801F8FA1000F3E9F7ECEDFF0F0014F8
FCF7FCF60800FFFF0AF60F0501000DFB
EF030FE1FF0006EEE9C82DF4D900F5FE
FB12F8FCFF0006F4FEF9F0FCF000F4EA
EDF1090A0100E7F9F7E705EB07000000
08092005F100CE00EF0AF9FF0D00ECF9
14F803FDEE00E208F919F4091800EEEF
03EE1EF2F700DDF6EE140BEE16001BF2
17E305DB080007F305ECFDF7C8003002
FF1B0321E600F3180B28F6020100F905
02EAFB0D07002A0B13EA0400EB00FF05
F4F71CF7F6002A00E9EF02EA0000FC04
06EDFCF9F7000B09F5DF1A021000D60A
FFFA1E071B0011030A0BDFFE110008F3
FDF21DE6F500FCF0F7031003F00011F8
2A0AFFEB1E002D0DFDEAF609F8FF2905
E4E909FF1A00F20619FD06F61D00E5F6
01E907D1F60009EEEBE71105F000FB14
09DF15DE040020FBF8D1F40BDC001911
28E2FE01F200DA0904301500EF000DF2
F01435F7E4000EFEEB031B050400DD15
E8212D021C00F5F3E62001F6140003F0
2AF10CF60B00D003F917E4021F000EED
08F209F6E800DFE6F72431E501002422
000D17DB090017DF10FAEEFB04000508
1F031B0EFD00E61003FBF2FC1500010D
07D9FCEDDF0003E3ECDB14EC01003103
F30D16F6F3000F03F7E7EDFD0000E9FE
020FF7FF0E00180005FEF60B1100F0EF
F50FFF15FC00271C00EF060BEBFFD6FF
FFE611F4FF00080BEFF3E400000003F6
1011E902010019160FEE100612002210
FF0202070200F8FEFA2108030F0003E8
F5060FE9FE0000EFE1F6E9FC0C00EFF4
DEF90DF7FF0024FE01E7F80913FFF3FF
23FC12131700EC0FF52AF71E10000AE0
FC0BF8EA0E0002F9120BF4F5EF00E0F1
F1EBCC0B0500FF1E25FA13F3D5FFD726
0C01E9F8F900F5F709211FF701000812
FDE8FF12E800F00608090D0BEFFFEDFB
D71DEFF2110029FE14FC0A0C0100DD0F
FBF8DC14FF00DEF91A091FEC00000202
16E6F9E41700F50320FAFAF4FA00FDED
0316EAFAF8001C03F70D05191100E6E8
18130BEAF900020000F0DA07FD00FCE5
011CF20AFD0011F3EF051F0B0E010606
F6FF20F8F8000D12FE09DF0CFA0004DA
0522D60C0E0002FE03F5F512120002FA
17030003EE00F1E8EEFF1AE31F00251A
F20019DBFF00FBFDD5FFFCDF06FFE8E7
D9090FFBF00010F4FFF9FB02E8FFCFF6
EB1BF6F2110007F805D90DEE0700DD23
1920FD2E020001F5F8F51E030B0003FF
0EFD111A04000006F30101FA1D011003
F80F051BE500F1EB08030EEF0300070E
02E7020FEA00090F06F9E305E500D41C
E23A18FBF00029FCF0E6E203FC00F9FB
E706FB021500E8030608250909000F03
18F510E40600F30C120600FF0C00F4F2
00000701F500FEE3FE0E10020500180D
1707FB12FF0003151EEDED1AFE00EFD0
0CDDE71E2300020101F91810000006F6
050320D60E00FFF1F716F302160024CD
14FCE608FD00F9EB21D7EEE9FF003F11
1AFE02071000FFF3061B220432005BF3
10051AEBEE000DF5FAF7F90CE4FFE4E2
0C220CF7FF0006E8EAEBEE0703000604
F411021E0900141D03F0F00FFF00F5F3
F8FB050C14000D0309FC2F191A00F2FC
19FEE2270400FEF808FDFDFE4F001A11
FC090422000002FFFCF504041B0002F7
F1F1F8EEE5001EFB0514DEDE1400FA00
ED0209E50300240BFDD1F00200000102
06F3EF100100F20D0C1820FA1900150D
010912E9FA00061503180A090B00FC03
EE03F1F2FF0006FD0FF000ED0A001D02
04EC07E31D00E7040D03EF08DA00EBFC
F6ECEC051100DBF21BDE19FA0400D2F5
EFFB02E90400E5F116F6ECF9F10007F4
00190E060B001119FDE5101EFB00FFFC
02E210FEE200F60C051FF4FDF100FEF1
130416FFF800ED04FE1CED0DEA000EED
020DF1021700FFE5EBF6E8F100002111
F9D9F101100002FF07E207FFFA00F509
D90C0FEB0500EAF8F405E6FB2B0020ED
0A1217FE0D00E2EFE620FA1A220006F9
0302FAF3F500DE06FD0FF0111200FCF1
07F00BD41100EBE003FC17F7F1004002
0EE017D3DE0008FDD9FDDC06F800180F
FF06F9011800FD0610020D0FF0000D04
0012F508FC001405E901010FED00F90E
EAE91FF3F000FE0AFFF6EEEF0F00E418
E7FBFE00F2000007020608FAEE00DBFC
EFFA1DFBF7000409FAFAFF0A1200EAF6
F0F700EB0C00FCFD0110FEF1F4001203
22F315F6FB001A0EFBE9EF1AF500031C
DB01FE00F600EFF80FF6F8FF0600F0FB
E6D5EA05EA001407150224F1D800FE00
0DE81A04E8000E0AF60907080200F818
25F70EDB0500E2F0F628F413F2002BFC
E0031108FE00EC1CF0E0F504FE00CD0B
F91808FB000000F80BECF0ED0A000AF4
0A12F8F60F00D9FD021D0F0F1B00F40B
06D6EEE91E000B02060EEBEDF70013FE
EDF0F801FD0005E70F05E90219000911
0713EF1BFB000B0D01FF0C1FE000FE07
F4FEE514EA00FEF7E5E0040AFC003203
FD00E803E600F7F6080AF5090100EDFA
08F403FBEE00EFFB08EAFA03EB00F617
0F010CFEFC00FCF8F9F61B01E1FFFCFA
E2E605FEF500FF0902070DFC1400FBF8
FAF0E211E50018ED04E810F6DF00FF30
141611F70B00F1F0FE1A18FEF400FBFE
FC090307F3000808E70505F1FA00EAFA
DD010B09F6000601FA0A02F9F800FCEF
FAF6F30F0600F8EBECFEFEF5FD001F17
00220F0E02000AFCF60006FF070000F2
FBFF0212020009FA1400FEF2040002F1
12F7FB070D00EDFF0BF904F2F300070E
03D1EC0B09000B021806F2E7F50001E7
F8F101FE020003F1F10602FF01FF05FF
05FFE20CF80000F806FD07F6F6001717
DAFDF808F50002EF01E80403F1000605
E9FFDD04EF000AFA0C0DEE02DAFFE5E6
121103EBF90002F6F204E810FC00F4FB
F300F60BF200FFFBFC1A18EAFE000315
00F2EEEEFB0007F808FDFEF0070003F0
F511CEFC0500FCF414EBF9F902000C12
1DEE1004E100F7DDE026F9FA1E00440A
00F713F10F0000FAFA11FDF30B00E7FE
EF14F5EC0500FEF7F5ECE0F3F70006FD
EC0912FDFF000B00E3F3DB010A0001FF
06F1EE25EE000A0607FB22031100FF15
FD170610FA00000EFB0002010400F5DB
020215F7F20006FB021D1BF7180016F5
12F804F507000107020EE307FE00F4EF
E61B10E5FD000CFAE91BF2F9F2002AF6
E6FFFE081200FC1120FE05040100F0FE
0FD4FCFF1300F60C1105EA04FC000809
EEF0FB05EC00F6F6F3060008FE000008
EEEEF2EF0200F1FE13FCCF12E800E0DB
FF15030BFF0003F1FC02FD03F900E611
E7070202E90008DFE6F1F9F5FB001B25
F813D8131000150114F208130500240D
000D11E3E800F6FAE8F7F6F70F004A03
0402FDEB1000F7E90AFA03EBDE00EB05
F1130DEA0800ECFFF00DFAF1F40011FC
EC011EED0500F305F910E0E31A0100DA
0301FF260A000A0DFFF9240A0300E00D
0AEF0B27FB00EFF0EC0D0C0A1F000208
0AFDFCFDEE00080B121201F005000B01
E01108040900F2EDF3FEF6FC1E0018F0
F80EFFF0F700E6F6FD14EC02020037EF
131E02090100071B08FC01FF1C00F414
081207EC0D00011515F4F5FEFB00FBFB
F305FFFC0000F4F2FE04F9F3F8001503
03040EF20900F7F10AF5D210E200ECDE
EF0CF0141900FBFEF1FAF6130600DAF5
ED1AF7FA040004F0EBFEDAF0FF00F9FA
FE1904150900FD1407F6F91904000F09
08F60905FD00FB17051803021500FBDC
1C0803E4F900EAF6EB09EFEFF00015F8
EFFFF50D0200F5EFFD20F2E319002BFD
0BE707FCE9000A020701EF070700F0FC
02F4F8FA020012F315F4F2EC050013E7
E90B0711FA0026120FFA030B0E00F4F5
FB0204050300FF020CF2F009FB00FD01
01F3FA04F5002B02F3FB02FC03001D04
D605070FF200FCFF020503F2F600EEF9
120C0B121300F6080017FF132C002908
080BFF030800090F0A06FE0BEE00ED07
C8F3FAF6FD0000F7000016F5F600F5F9
EE03FEE50900F8F5FE0209FDEA00E813
0A1717DF0700F3FA0CF903F2FC00FFF0
0202F1F3ED0017FE01FA0B0BF200F003
EA0E090502000F0CFD16FD18FA00EA21
0303FBFF06000AEC19F3FBE8F900FDFA
F4FEDFF4040017FD17DF05F9DB00D4F0
F10503050C000402DBF508F90500FC10
FDF1080CFF00F7F6FE0E0B0800001E07
EE13E50EFD00F9071AFC0BFB0200DAEA
071316FBF90014FC07F8FA041A00F2E9
100D0A04FB0001F1F1FD0EFBF6000D09
EFE8DCF3FF000AEB15F30905F00004FB
E10BEE090E00F7031208F4FF01FFF502
2C16FF07BE000FFED6064116FE00201D
F7FC00ED0200FBFC0A0B10EFFA00F508
E1F7F1070E00F3FC14E405F9E1000203
E106F0F4ED0011F8030004FAF000F81A
28FA25FEF400EBFD041C02FAF5000702
DC15D8EEF70017FD1ACA04FCE600CCF7
E401EC060E00FC131BF30116E0FFF60A
09050F13F600DBF10019FBF828002606
E4FBBE19F10008070EE20C0CDEFFE8F6
E505E901020004EEF3D6F0ED14FFFE13
FAFE01F5ED00F2F8F0F113F6040014E3
0F1409F5EE00D7F522160EE50A002B06
F3FCF4FEFF000CF0FB17FFFCF800FCEB
1FEE0C04F800F70106270DE7FE0007F0
EBFCC8FB140010F01DD602E7E4000012
F404EBF20A00F40512EF0EFCF4FFF10B
EAFF050BDD001602E810FE0EFA00E7F6
D108FC0B0800FEF114E216F10D00090A
1505FDF80000FAFC03F0100DFA000206
E10FFD0BF30007050A080E0FFF00EAF2
0FF018000100FA02F935F7F60400FEE7
DA14D5FA09000A0826B2F7F7BF00D610
F305F1EEFF00F30F091002070100EA0C
0BF31D01E50005F9C93010FB2100380B
FD02F00B080000E405EB1DF209000E13
FF030AFEFE00FAE4F8ED05EB00FF0C1E
E60D100CDB000F0FED160D0E0300E8F7
1104131AE8000D03EF2706F6F500060F
0E0CF213F300FD0D16E9050EF6FFF000
0EEA0E01FE00F40A0E1A030A020008DF
ED07DB14EF00FEED0AD8F7F6E7000023
FF07F4F41200F7F506FD161002000312
0716ED13FA000402FBEB0E060400FA07
E50EEF111F0018FF21F40000F400050F
1608FEEC0800F7EB0113F3F62100270A
010AE5FF0B000F0D1003F807E300EAF4
F9E80AE0EA00E8E9020E07ECF900030B
D31CFA0F0F00FE080ED0000BF200ED10
F00BF3101900E70307FAFE160500001A
0403FDFAFA0004F6F50DDA010400E808
F118FE0C03000BD9F70820F0F500092C
FB0221F90100F1EFE70004F20E001201
0604F7000300F60D0C060000DE00F0F7
25F119F5EF000200FF0E0F06F900050B
E1100D0D100009FF00EC0D0DEB00B804
3AF605060300FC0615020A130300FCEF
DEFFFE161400FAFC02E8FAFDF000E4FD
F813F6EFFF00E5F5F8FEF9060B0004FB
1B0EF30D190000200DF0F026FA00EC0A
191F02FB0300160A0F0502100300FD05
E70AF9F10700F7F2FC13FBDF0B00200A
031DFDD4EF00F9DFEF14E5F105001415
D60CFE0B0C00000010F605FE0500F703
DD1303070E0000F616EDF304FE00F1F5
FC2503160D00FCFEFB08FC090E000C13
0D0502F70400F5ECE3F5F4F30100130E
F9F902F6F7000DECFC0FF6E519001905
13041108F000E7FDFAFE01F10B001517
150FF9091700F6F908F1010FFE0000F7
240000E300FE0104000000ECF4000008
180000FD00ECEBFC000000FEFA000000
F700000000E9FBFE000000FE0F0000F0
210000EF00F8F3F9000000F70700000B
E300000F00F7EE05000000E5F00000F7
19000006001509130000000B1100000B
0C0000F90028FFFA0000001A1B00000E
EE00000C0018F9F4000000190F00000A
F90000F6000704FC000000172D000015
FB0000ED00F713FC000000070F000004
0D00000200FFFC0B00000002F30000FC
0C00001D00220A220000FEF9E2000012
120000F900FD1901000000FD07000014
DB0000F40004F9F30000000A1F00001A
EC00000800FBE90B000000F7F4000008
0200000200EF00F5000000010C0000FE
220000ED00030D03000000E200000009
0F0000100013E10B000000DDF20000E9
F60000EA00040EFC000000FA1F0000F5
13000011000FFD06000000090300000F
ED00003200FE05E600000009F60000FD
140000EE001B20040000000829000001
F50000FE0012F4F50000002919000021
F30000020005EAF70000002AF5000003
0E000010000B0DEB00000027170000FF
E00000E800EC0CF2000000183500000E
030000140005F00B000000F4F7000010
EA00000F00F019150000FFFEE40000EE
120000FF001E09FE0000000210000002
E600001000FDF7FF000000170B00000D
0200002000E5E3E000000011F9000003
E40000FB00EAFEFA000000FE020000FC
0600000300121C18000000EDFF0000F1
040000080008E2FA00000005310000F9
DE0000F1000502E70000000E35000000
12000016000105120000FFF406000000
0100000B00FEFFDF0000000EF9000005
DB0000E700210BF20000000D4F000025
0C000000001A0B030000001CFA000007
F40000FA00F4DCE60000001AD50000FE
0700000D00FF04FF00000011F90000E7
EF000009000B17F30000001D120000F7
010000050008FF0A00000015E9000006
C50000E6000A08EF0000001F2900000D
F400000E000AFAF100000013FC000007
F80000110004F2FD00000020E60000F7
FC0000F500D9E0DC0000FF0E12000005
EF0000FC0009DFFF000000FD15000018
EC0000FC00F8FC01000000F8FF000004
090000110027FEE20000000A42000019
F30000EF000BFDFA0000001B1C000009
F700000600EFF9150000FFF7F50000F7
EE0000FA00D700EA0000000B110000FC
ED000004001F02050000000317000012
070000100013130D0000FF16FD000008
FD0000E800FEC6D70000002F0900000D
0400000F00F6EAF20000FFFCE60000F5
180000FE0016FC00000000F8000000FF
FF0000010008F60600000007F20000FC
AF0000F000E4300700000010430000FE
DB0000F500F7FD0200000005FE00000B
070000080001F4F70000FF05EF0000F9
E20000FC00DFCFE0000000060F000007
050000F60006FE1900000007FD0000FD
FC0000070004F8F4000000F7F20000F7
F10000100008F7FE0000000020000009
F50000F2001114FD00000007160000F6
F600000C000A03F7000000040E00000C
1100000900DCE4EA0000000807000005
F600000F001107010000000927000010
0E0000FE000FEE110000FF0DFA00000C
F20000EE00E2EAEF000000212B0000F9
270000F300FAE2E7000000FBDA000001
090000E200F002FD000000E7F80000FC
0500001400F7ECD80000001718000012
0600000300120E160000001201000013
FC00000300EBF41100000017FB000007
0C000016000407FF000000EDFB0000F7
FC0000EE00EFDFE3000000E70600001D
030000F700FEFD02000000FF050000F7
3E000001002FF404000000E2E90000E7
0900000C0009E9FB000000EC0300000A
F10000F8000CFF03000000FF0D0000FE
F20000020019F1EF00000017ED000006
DE00000500F6FFDD000000EBFB0000EA
F60000F7000A02110000000905000002
0D00000800191A22000000FDFD0000FE
19000005000117FE000000F2EA0000F1
3A0000030010F5000000000605000011
F200000B00F904070000000E11000006
FA0000FD00FDFD0C000000F0E20000FD
DF000006000107EE0000FF06F50000F1
2000000600FDF7FE00000001F9000013
EB0000F70006F8E60000001D2100000D
FE00002100ED0110000000FD030000EC
EE000008000AECEF0000000DFC0000F7
220000FC00F2FC18000000B9F00000ED
F50000050010D1F80000FFFCFC00001E
FC0000F600F1E701000000100C000011
FC0000130000FBFD0000FF09E500000D
D500001600EDE2F50000001305000005
D100001200E6111300000016220000EF
0600000A00FE2208000000FB2B0000F0
1600000D00FA09FC000000EED70000F0
2F0000F200120F00000000E80400000E
170000F100FC1AF50000000903000004
1D000015000FF410000000FB000000FB
EE00001600F805F000000001050000F5
180000EE001B1CFC000000F9110000F1
130000EB00FC08FB000000F41D0000FB
08000019000A150100000019FD0000F6
DE0000020009DFFF00000004090000FC
05000005000603F6000000EC10000001
F60000FD0003DE000000FF2B0B0000F8
DB00000300F2F211000000020A000004
0600000E000EF70D0000FF0B0F000018
E300000B00E1D2EA0000002202000004
F40000F2000607F40000000D130000FF
F80000E700F40B13000000ECF10000F5
EC0000F600FBF0E900000000E200000C
1800000600F81A08000000FAFB0000FE
1200001200FA09D00000001D070000F3
120000E50005E1FF0000FFEE06000002
B800001800E7121700000013140000F1
CE0000DF00F70DF5000000261F00000A
180000EC00FD04F5000000FCEF000002
FE0000F80011F8FC0000000FF6000013
EF00000E00F4E904000000080E000002
090000FF000A08E30000000E0600000A
FB0000FB000EEB020000001F02000019
0A00000900F4160D0000000B0C000006
F2000002000B04130000FF0A13000009
F900000600E2E7F0000000F220000004
08000001001901FB000000FC020000FF
040000E800F80C07000000F8FD000004
F100000B0004E4F10000000E210000F2
070000F700FAF5F900000010FC0000F4
02000007000DE7F20000000FEB0000F4
170000DC00F3E6EC000000E01000000A
DA00001C00C2350E000000020B0000E2
E500001E0012F4FA0000002DF900000E
010000F20006FF050000001609000007
010000080009E5E40000001007000002
1000001A00F3EE0A000000EA04000009
02000003000BFAFE000000F5EC0000F5
FD000036002204F2000000181D00000B
020000F7000909090000000716000008
E50000F10004E3F00000001024000022
D300000200ECF0F4000000F30C00000D
0F00001200270722000000F4070000FE
020000FD000CFB100000FFF50100000B
DD00000200FA08F50000001812000001
0E0000F400F6F2E1000000EEEC0000FA
F90000F30011F8DF000000120E00000F
F10000EA00F5F9F6000000021D0000F7
0200000A00101A26000000FAF70000FF
1300002500F80BE2000000FF120000FA
FC00000500FBF6E800000005150000FA
DB00001300FA07E6000000032D00000A
16000013000FF9FA000000FBF90000FE
060000E6001904EE000000E405000006
F20000F800FF0911000000DD010000FC
F70000E500F903F4000000040F000016
EB0000F10014F8F2000000EFE80000FD
F100001400E503F90000001C180000FA
130000DF000A061D000000F4F8000001
0800000300110B190000000DF3000005
FE0000F4002BF205000000F106000003
0C0000F4001D04FC000000F2FF0000FD
0700000D00FFF10C0000000706000010
F40000F900EE1A11000000F2F10000FB
1B00004000080E060000FF26050000E9
0C0000DF00FCE600000000F7F7000001
0900000A00281F01000000E6060000F2
F2000027000F14EA0000FF22130000F6
BC0000F100F1EFF3000000040B00000A
F80000DF00F8ED09000000EFF5000009
FD0000EE00F5FBEF0000000BF300000B
ED0000E900EBE7F90000002008000010
F100001600082EFE00000016020000FA
F20000E7000BF208000000F8F80000F7
E70000F000EE2E080000001B1000000B
DF00000000051F0700000014050000E3
0A0000F60009F9FE000000D2F900000A
3B00001B000BCAFD000000FEF9000013
340000EC000A0C00000000F6EF00001A
FB00000F0009E809000000E9020000F9
0B00001900FE150C0000000F170000F4
0D0000EC0032F4DC00000016FF000012
0F0000FD002AEDF80000FFD4F00000FD
F30000F10010DE000000FFDAF40000F8
ED0000EA00F3EEE70000003F0D00002B
F90000FE00E3180B00000003FC000001
140000D600E113FF0000FFFDF50000F6
FA0000FF00080CF400000018080000F7
FA0000F500DEDFF70000FFFCE1000013
1D0000C8000BD201000000D1D00000F5
F500001000FA18E500000016040000EC
F700001400FCE901000000F7ED000010
110000F100F3ECF5000000E3F9000022
2E00001C00F9FE06000000F5000000F9
080000EF000606F80000FF0B15000003
2100001F0009DEF30000FFE2E7000016
13000022001718FF0000000AD90000F0
FD00001800241A030000000A0F0000E6
2B0000F60006EBEF000000B9FC0000ED
1D0000CE0004F1F8000000A4F700000B
1E0000EA00EE02F8000000FBF90000F0
13000011002717E40000000A0F000004
09000011001D000900000006F50000F0
1D000005000B1C0B0000FFF8030000EF
1A0000DB00F7F40D0000FFDB130000F3
2B0000D80007ED0A000000E2E10000F7
E50000E5000310FE000000F8FC000007
1B00001E0014F905000000F10100001D
F40000EF00F20FFE00000011FF0000FE
0600000C00F0E9F8000000FAE900001B
030000020008E4EE0000001DFD000006
060000230020EFFF000000030B00000C
E700000F0001420B00000028050000DB
FA0000F8000EF2F00000001D17000001
ED0000FC00FFFC03000000E8F1000005
210000FC001005F7000000130700000B
2100000E0004EF140000FFF9E6000013
010000E5000DFF02000000F2ED000008
2200001400231906000000FAFB0000FC
0200000400130309000000FAEA0000FD
110000E4000F0A00000000F0070000FA
1F0000FD000604F3000000010300000E
DC0000F00004FE0A000000FDFB0000FF
E80000E40011EA0F000000F8FA000015
DB0000F000E7FBFD00000007040000F6
F60000DC00E8E3F80000000F0700000D
F40000DA00D301D7000000F7FB000025
E400000C00000EF3000000030A0000F7
2D00002600060D0F000000FF0F00000A
E30000D700EAD70A000000F5E90000FD
D60000F600FAEF0F000000010D00000C
EC0000F7000824F90000000C160000F6
010000FE00F7ECFC000000FEF50000FA
230000E000EE0A11000000ECCC0000E7
26000001000D1C0A00000004EF0000FF
080000DB00FA020F000000F2EF00000E
110000F400EF1FEE0000000AF10000DE
EC0000F6002614FF0000001E2300000F
1500000700F31020000000FEF100000D
090000F4000C08F9000000FF0800000F
FD0000DD000D1D03000000EB0D000005
E30000E4000B080D000000E6F2000003
040000E10009EA0D000000FC0400001B
18000005000700F700000000110000F7
0B000015001518050000FF1C23000005
EB0000E200E2F412000000ECFC0000F4
C80000F500F502F7000000E60A0000FE
CC0000E10004F81E000000032C000016
0B0000F300D71C0900000027070000F6
2C0000E800F3F228000000EAEF000006
4200000F0005140B0000FFFAE10000E5
070000FE00D60AFC00000010F800000D
3200003B00000DFC0000001F0D0000F8
DA0000F6000F1D0D0000FFE2F40000E4
180000E300DE100800000019F6000003
D000000200071C0500000006030000FA
EC0000E300F413FC000000F90400000A
FE00001700FE06F9000000FB170000FB
FE0000ED00F20FF60000FFFC0F0000FE
F30000F800EDFBF9000000F2F7000001
EC0000CE00E027130000000D0F000000
0000000B000905F8000000FD090000F8
DA00000300F1F8F6000000D4FC0000FD
DC0000F800F7FE23000000DE15000006
2D00000C000410FA00000021F20000EC
13000002000709150000000E06000000
04000004000600150000FFF6F50000DF
1500000A000C140B0000FF040D0000ED
F700002400F3FD000000FFFD020000FA
160000EB0012FCE2000000DFFF000007
F30000F9001319F000000000130000E6
DB00000C00D6FC0E000000E4EF0000F0
F10000F700E6EAFA000000F3D8000011
0400000300F8EC1400000006FD000010
E70000E600F60D0D000000F6030000F7
EC0000FC00E8F0EE000000E0EE000004
F40000D200E7291400000014EB000007
E600000C00370FFA0000000F130000EA
E300000100FCE007000000E70800000C
2200000C000617EF000000EC020000F8
1500000100291A1D0000FFF8F10000E5
F80000E1001409000000000CFD000000
FA0000F10012D212000000EBBE000004
E00000F0000EF60F0000FF0CEA0000FB
0200001C00F30AF40000000703000000
080000E5002512FD0000000C09000015
090000DF00EEFA11000000E6DB00000F
DF00003A00E706F1000000031B00000E
EA00000800FF131B000000EBF20000FB
FF00001200CAD7E0000000CAE1000014
010000E90014F608000000DFF2000003
FB0000FB00F81905000000EB030000F6
150000F000E230FA000000151600000C
EF0000FF00171C0B000000FD230000DE
E900001C00D60B09000000EF0A0000F8
EF0000FB00F416060000000807000006
020000E700FDD810000000F7D20000FC
150000E00017FCFB000000ECF9000002
EA0000DB0012FF02000000F3EC0000F4
EC0000D50006F3FC000000FDF70000F1
E30000F200FB1910000000F8E70000E5
F00000EF000B25FF0000001B070000F7
F70000ED0018F70E000000EF000000F9
E900001A00FBF205000000F807000005
E10000E400FE280500000002120000ED
F400002000F6DB0B000000FAF10000F7
260000F700F5FFFE000000F707000021
E000000900FBFEFC000000DCEC0000E3
1B000006000F19080000000C1200001D
010000050003F8110000000AD6000010
F700003000080601000000FB170000E9
E50000FC001F13F800000002FD0000E2
FC0000D90003ED01000000F605000012
F60000110003090400000006E10000EB
030000FF0012DE1100000004DF0000F6
F90000FB0000000F00000002FA0000F7
EB0000020015FCF30000001C0B0000E8
EF0000E900E2F912000000EFFD0000F9
0100000C00250E0D0000002907000005
FE00000500F8FF1400000001F2000006
0C0000F900E702F6000000E5F8000003
090000EA00ED0004000000F701000002
F500000900F80B00000000E0010000F6
FE0000E400EE08FE000000030F00000E
FA0000F80000F42B0000FFEAFC000004
EA00000100ED0EF9000000F3F00000ED
E70000F000DF15F6000000FB09000020
1900000700070C0F0000FFED0B000007
DF0000090010FF18000000240A0000F7
FA0000EC0004FD19000000E0E500000C
F90000FB00FBE311000000EAFB0000FE
0B00000E00130A0A0000000E0B0000F2
DA00001400DA1BF60000000E220000F3
FB0000F200D102180000FFEFFC000000
E90000D3001210170000000A0A0000FE
E500000000F10C12000000F4FE000001
050000F600ED02F3000000FA04000008
FC0000F60007FFF7000000F80A000001
F000000C000DEC060000FF0D0A000007
F80000E500D8070E000000FAF0000007
ED0000D800DB0029000000FFEB000008
0A00000A001014E00000001517000003
F400000400F107DE000000F204000013
1A0000220006FB090000FFFB080000FD
E00000EA00FFF609000000EFE1000005
D400000300FFF20B000000FFF10000F3
F90000F700FAFBF400000000F8000009
E2000019000703FC0000001C180000E7
FF0000FD00D11E02000000F5F90000F0
FE0000FD00D909030000FFF50E0000FE
FC0000CA00F3E810000000E5F70000F1
DE0000E400DE1E1D000000F2FD0000FA
0600000800F500F50000000312000010
020000DE00F5E106000000EADC00001F
EB0000070000E80A000000FEF2000000
0A0000F800D50BFD000000E3EE000015
F70000EA00D50E0B000000E7F0000007
E60000080038FEF80000000F1C0000E6
1A0000F4000B11D9000000F500000011
08000020000F09F60000FF051B0000E8
F00000DB00E7DF120000FFEC010000FD
FE00000D00180323000000010E0000F6
F50000D900F8EFF3000000EED4000008
F30000FA0003DC0700000012F000000E
F00000EF00C908FF000000EDED0000F1
F80000FD00EB18F00000FFFF0400000D
130000060008FA02000000FBFE0000F5
FC00002A00F818180000000B130000FF
ED00000700061102000000FE0C0000ED
F500001100DEFD06000000F7EC000017
E000000F00041B13000000030D0000EA
050000F900F01321000000E9E2000016
230000FE00EB0DFB0000FFF705000009
020000FC0015091B0000000E020000F0
0300000800191F0300000009190000E6
E700000500FA09F6000000FF11000007
F70000FD00F2E1FB000000FE0800001B
FB000003000E020C00000000100000FC
1A0000F000F1F928000000D9EF00000D
080000F10007F0F200000001F500000E
F60000EC00E8FAF9000000ECE80000FC
F2000006000B0D07000000E9030000F6
21000003001507FA0000000AFF000033
0F0000220002120C000000140C000012
E200000C00040F14000000F9000000D9
F6000004000B1C0D00000005060000E8
EE00000600EA0F33000000F8F70000EF
F70000EC00DE0919000000ECE1000005
1B00000C001514100000FFF9FF000001
01000033001008F9000000062E00000C
E40000F4000B1D12000000FE040000E2
F5000004000DFD17000000F5F30000F6
0000000F000300EF000000F2F9000012
0C00F60C0800090008FC240904FA0000
F200FCF9FE00ED001AF91E000BF80000
F500FD0AF900F500090600F3F1E20000
0A00FFF500000E000AF8280B110C0000
D3000812EF00D6000A12F0E5D3F90000
120006002300190007FB15201F0C0000
03000DF50500F9000DF1081108240000
02000E0EFC000F00E2F3EBECF41C0000
FD000AD80300000002F5031410280000
1000FC0910000C00FA04161605030000
E8000EEEFE00E3001512F6F0F90F0000
0200080A150003001318FF1307050000
1D00F9030E002000FEFF221906030000
F70006F5F800070004F5F60403280000
DB0011FB05000500FF05EDEEC2000000
0400F808FA00F0000401160402EF0000
1A00F0EF04001000EEF8281422FB0000
1C00E71911001100FCF019F3FD0C0000
0A00F0160B00FC000C041B0106F50000
0300FFEDFB00170009010D1205F80000
F80008F6F0000400D1F7F1F7CA130000
060009102E00090019071B2242180000
1600FAF0FB000200F8F1191903190000
F9001600DD00FB00DCFCECF7CB130000
08000004F20009000709FA0B08070000
2600F9F714002E00EDFCEC1826E30000
010001F4EA00ED00FA130701ED0A0000
1C00F31F0E0015000B21FFE9E0E50000
FB00060A05000C002602FF1228F70000
070004F8F700050001EB04FCEB050000
DD0007D7F400F900EB07020ADB100000
1600FBFE0400FC00FD030001F7E20000
000008FE0600040005FFEE0107060000
2300FE281C000D001D001C0015060000
0200F600F6000E0003F6FA070BEC0000
FA0006F5F900F8000EFCEE0912EB0000
180006EFFC00FB00D5EDF7FCF8030000
03000DF014001C0011EFFE25200A0000
FC000FF1FB00FA00030F1101F6090000
1A001302F4000000F0F601FEF3010000
ED00FB1BF6000E000D07F1EBEDF90000
FA000BFF0F000B00E719D70201100000
1100F900F9000B00ED0D0E17F2000000
2100EE1717000400EEE016040AEC0000
0F000D000300F900FFFAF211ED180000
0A0000F6FF000C000000FC0502020000
1F0003E902001100E10001F504FC0000
070001F4FC00FC00F6FBFE07E6F00000
FC00FF030400FF001B0B04FDF1F70000
030003E80100EC00F6DB071507340000
02000BFC0300F60008FEF8FAE1040000
13000D0809000900F611FCE807F40000
1E0001100A00FC00E7ED06FFFCE30000
EA00180017000700F5F2ED03F9210000
F50011011B001000FE110C0C0B050000
160019060200F300FFF61509E1FC0000
1000FC0DF900010009F5F50B15FA0000
EF0015F514001000FF10E8000A100000
0900FBE90900FF00ED04FB1309070000
1D0008182D001B00ECF1181CF5E20000
FE0008FB060004000AFFFD0FF90A0000
FE00FAF6F600EE00040CF10004F80000
2900F5F3FD002900EEFF080019E20000
F5000C0D0900FB00EF0AF901EFFD0000
0700F809F9000300030AFCF3F0090000
FB00F9F015001600FFF2F2FD0F190000
1800F70704001100FE03F604000F0000
F400F7F40200DC00FA03FF0203130000
0B00FC0208000200D9FB0C0E01E40000
F5000D101800070009FB040E141A0000
FA0019FA1900FD000102FD1907140000
0F00010D1200F100EAEF110CDDE90000
1C00F8FEEE00F30010F0090A2AF60000
E800F7030000F100110508F710FC0000
0700E7DAF800E700F2F5FA0317060000
1100141020000E0004050810FD060000
13000BE300001A00E2FEF504FDF30000
F6000DF40000E800FF0F0C0E1E0A0000
0B00F5E20800FB00F3FC05160AF20000
F50006F70F000400F2FFE0FCEEFD0000
0A00F50F080000001EF20EFDE11E0000
1200FBEF0800FB001F021B12EAFE0000
FA00FBF6FC00EE001DFDFCFEF4160000
1E00FEF0F50005000604EC0AF3220000
C70001FDEE00ED001904D5D5F1FD0000
12000CFE1E001B0001F101001E0B0000
0400150216000B00F8EFFA030B170000
F500110FF100FD00FDF1F0E52B0A0000
F10000EF0000F30000FE101107180000
FE000BF60B000C000908210410F50000
F0000702FB00F700061FF8FADEF50000
E80010180600F9000611E9E3F9EC0000
0B00FBF9FC000B0007E9100F090D0000
06000603F900EC00FBF106FEF6130000
CE0011F5FA00ED00F302E1EB01ED0000
EE00060D0400E6001AFFFBE9DC080000
0900EB030700060012110FFA04000000
1600F4F3F8001300F9F5F506DA1C0000
1400F8F801000A0002F1FB0EF2FB0000
0D00FF01FF00FE000306FF11F3040000
FB00F7060300F70000EDEEE8C2030000
080007FCFD0015000E00EFFF11F80000
F800FF0D17000700F709F90E0C090000
0500EA07F0000900F8FC02FE16000000
E800F8E7F700EE001A151509331C0000
140008EA03002200F106ED082CF70000
F000FEFF0200FB00FD1BFC00ED0A0000
E10006261300DA000FF0EFF301DD0000
0800EC05060019000400FFEF24050000
F50005F7FF00F70005FF16FF02240000
F7000414F5000C00EF01F2E9D8060000
0800F3F10600040010F8EA0BF3210000
E900F303FF0002001818040411FC0000
F900080F080000000EF512E9EEF80000
1800F51809001A0009FBFE0A1AED0000
F900FBF70700EC001609FC1407FC0000
0900000706000700E9FAF507EC060000
0C00F814190008000908F30121F90000
2500F10EFE002300F202F3FA04080000
2900E20F14001D00FFFEE607E7000000
0C00FE0CFF000C000510FE1512030000
0000F905EB00E9000405F9ECF2030000
EA00F9ED0000F50001F00C0806030000
EC00061B0C00F90027FD07F6C3FF0000
1200FEF40100ED00FEDDF1FCDE050000
0D00F801F600F800160A12F9120C0000
1A00F5F011002B00E608EAFDE3030000
EB0000090B00110011F50DE8E1EC0000
FA000717F200FC0009F4F9F504FF0000
B00012EEF300E60017DFEEFEEC0A0000
E70023DEFA00D7000CF9E90DFEFB0000
040007EA16000100F9E707FFF5FE0000
1200F9EA0A000B00E6F4050407FA0000
F6000501FE00DB00FFFEE9F80B180000
2000FA06FA001A00EB01080311EB0000
F500F5100900FB0008051501E3050000
1900F8F6F6000D0006F0EC07F10B0000
DB00FC0EE000F900130BF5E0EF0C0000
FB000514F40005000B0514090D090000
120007071A001400ED13F610F0E60000
F200020CFD00000005F7FFF9D8100000
14000905FB00F40003F405F8EBFD0000
1000EFED07001500F10006FE00F80000
E100F9DA0000E6000111ED02F1F80000
0B00F60C060013000A0CF9F7F20B0000
C0000FF5FF00DD001707F0F201250000
040007F01800130004FFEF0911070000
F30004E12000DD00FCC5080C001C0000
2400F9E327001600E6000901FBEA0000
E50006041800FD001D000502171D0000
F8000E0F0C00010006040810021B0000
030005010D000700EF0D0AFC02F50000
1100F006060012001104191423030000
FF00E604ED00F300FEFC1301110A0000
0D00F70BF400F700EBFE0BFBE2040000
FB0020012B001500EF00F4F8FE0D0000
EF00F1F1FB00F600EC1904EB18080000
1F00FFF7FC000100FFF90900F0070000
1A00E8DC1000FB00F212F902FFF30000
CC000DEB0000EC000E0FF60B1A110000
0200E9FCF700F400070EFE00DE150000
F1000F19FF00E600210E1BF8D9FB0000
0400EEF9F700EE001DEC1210071D0000
F300F61F0100F3000C050EF1DF090000
E700090704000400E7FBDCFAE9E70000
FB001C051E00020012FD080522FA0000
F90016F92300F800F10B0109FAF30000
01000DE91E00FA00F0FFD50CD6200000
1F00FAE11400FE00FA01F915ED100000
0E0004E9080006000406101401030000
FE00090C0500FE00FB04ECF40FE30000
D1002CFB0F000A00FD05F0F920130000
1A00F0FBF9000200FE010F0CF4FF0000
FD00FCF41700E200F814F30A06150000
EA0009CE05000400CC06D516D0060000
0700F711FB00EF0010EE02F6EAFF0000
0B00F8020D00ED00120B0601F2FC0000
EF0002000B00EF000A0419010C050000
0A00F314FE00EF000DFB0705DD0B0000
F50003160800F400030311EEF2050000
FE00070218000500FEF5F7E1DB020000
FA000CF70600080019FFFE02000D0000
1700F51303000200E906FBE7E0060000
F00006DC02000200F609FCF9FC160000
F70006EC0100020009061A0FFF100000
10000FD6F80010000104F51D51020000
02000DEF01000000F1F8F8FE05FD0000
E50000230D00F2000409F8EA0B0C0000
3300E7F1FB00240001DF151734270000
FF00FAFD0400E2000303FD05CD050000
100004E702000400FCFFE60DEF090000
F50005FF05000C0001F01917E9FD0000
0E00FFE802000400F60901121AE20000
0200F5171600D800080D130B0EC60000
F800F6270A00080012FB11FEFFF40000
E700F7FAED00D7000AFB06FE0EDA0000
070008F600000400FDF9FAF9FD000000
1300EE3111000E00030AF6F80FE50000
1900E80E0B002100F7FE07FBF0110000
150000F3F9001000F1010EF8E6060000
EF0012E80100EB00F8FA03FE0E010000
1C000907FF00030008F5FC05F6010000
E9000B050700F2000405010BFA130000
E500F5EAEE00FB00EBF80E12E11E0000
1100FC23FE0000000EEFEBF409180000
E500F8F905000500FE04F7F20C160000
030002E50200FE000C07EF0808F20000
DB00F50F0B00DA00FA04020318EF0000
1D00040DF100FC00FA00091012080000
C3001604FC00DC00130405EDE8100000
EF00FD09FE00DC000C1000F404060000
C40012F71200C6001434EC0F17EC0000
E10021E00300ED000901EEFA031E0000
2B00E9080E001200EEFDFF0C1C000000
FD00F70EFF001E00EE00090607160000
070013F2F7000C00F2F4FC01E01D0000
1400FCEBF4000C000DFD1D04FDEE0000
1800D9FCEA000900F0EF0C0F02F70000
D6000F0C050004001B09FBF9001A0000
0400082E0C001400F9F9F1F1EDF40000
1800060FF8000E00ECD3E5F4EF1D0000
EA00FC03FF001300010DF2FBF1E70000
DA000DE1E500FF0007F3F9FBF8040000
E000FDE80000DF00111BFEFF140C0000
1F00FCF10800FF00F7FAF5130C0F0000
E400EF1EF600D60018E70AFA1A2D0000
E40004FE1000ED0012FBEBFF101E0000
DD0007131A00F9001D00FDF304190000
020017E60C00F700F9060D0AEA0D0000
0200EA261900FC000203070B13FD0000
17001502210014000004F112090C0000
160003F60400170003FAF4F9E7FF0000
060000EDF7000E00F00A1417E4F30000
3200BD02E2000700EFEF231301E40000
FE00FB1CFF000C00FE16F1E0EFF00000
0C001DED1600F900F3F2081D0E080000
1F00F1F9EF001200EFF3F3F3F2F90000
0200FE0C01001200FB02FDEBCDFB0000
ED00041FFB00FA0014F7F7E6F0000000
F600FDFAFD00D700010A0700FAF70000
D600F922F900FC00110FF5F015F90000
F800001FF0001600130E0A1132070000
FB00F31BEF00FA000EF007FDEF080000
F200F134E8000000F015F1DC13CF0000
F0000ADF0900FF00ECF7E100F0260000
FD000C08270012000818030D16F00000
E6000CDB1700ED00F2FDF9130CFE0000
050001F81B00E500010C120DF8040000
F900F8FE1B00E50008F2110BE90A0000
1900FFEA07000B0015F21C14E4140000
E700FFFE110003000007F5FC0E010000
E70021E015000E00EEF9FD08030F0000
02000101FD00090002FDFEF8F2FE0000
1800F2EE0C000800D4EAE302E5FA0000
1D000ECA0F002200D2E7C80D070C0000
F400051BF500FF0009F9F3F80DE50000
F40004050A00F400110E0E1A01F90000
C900F21AEE00F700250A05F72CFD0000
0100FA16F900FE0012F00F120AFD0000
D700FC2CFE0003000A090EEB28FA0000
1000FA1306000D00EDFDDDF403040000
1300F7F50D00180005210F1213DC0000
F00007EEF900E400FEF4F1F6E3F50000
FD00F1F70200FD0006FC09020DF00000
09000FEC1400ED00EDF01A05FDF40000
1500F9EF0800EE00FC19FE0B09E40000
0E000A0906001C00FAF8020907F00000
0A000EDD04001800D90FDEFDF3D30000
1500ED0E0A00E2000F0D0EFF080C0000
050006F1FC000000F3FD0000D4050000
090003F20D001900E8FCED05F1FD0000
F000FA0A0300F7000EFF131630F50000
040014FE1300FD0000060A0EFE010000
EA00001C1400CD000804ECEE01F20000
ED0001030100D30001060B09250D0000
F600E70FFF00EF000F0914FFF5FE0000
F400E802F9000700FF0125FA04110000
1200030A14000A00FD00F3EE0D0F0000
0000FFFBFE000A00F505DEE8DAE50000
F30011EEFE00130009FA0DFDFBEB0000
F70003ECFE00090002F7F10F06F30000
060004FF02000A00F107E30610F00000
1000ED13FE000900F8E313E2F3F80000
1100FDFFFB000B00EF07FF07DEE70000
0E00020FFB00FC00ECE8D7E80C200000
0F00F5E711000400FB05F8FEE3F70000
E800FD09F400100004FE1C0C23F20000
E100F8000200E400060DF2FDEC0B0000
1A0011FE02000C00FB05E4000BFE0000
08000CEAFB00F300F8F5FAFAF9010000
08000BFE0400F60004F6E2EDFA1C0000
EF00FA120E00FC000B101507F5F50000
F7000D1601000D0017DF09F8E71C0000
1100F00D0E000900FE0D0EFE1EEF0000
0000FC0F12000100FF18F7F4EEEE0000
150005060C000B000BF610F7F1090000
EC00EF1FF200F900111509FB05D70000
0D00FFF30A00FA00031EFD1910090000
F7001910FE00070001F301F6D8000000
1900F9110E001E00FBF62C1B0B080000
FE000009130026001107DCE406250000
0400F0110C000A001222E900F0E30000
08000B03FF00EC000E0400FDDCF80000
DD00F412ED00E100FDFD01E609040000
1A00FDE2F7001A00E60AEA1C1D0A0000
09000216F600F80011D9F7F6E4170000
FA0001111300ED0009F7F80900080000
E8000816F500010017EEF2DFE1FE0000
E800FC2CF300E8000EF807E7EDFC0000
FC0009011000F8000217090D08F70000
F7000DFE0A001B00FD17050111FE0000
F200F620FC00F9000A10F2D9E2F00000
FD00F7F6F700FD00FD170404DEF00000
F500F3E80100070010070E1D0A0B0000
F0000D08F600FE001B0AFCE6D5030000
110015F91600F30019FB24261E0A0000
FD00FBF6F1000E00FEF1EF00F3210000
DE000A0911001500F915E7E6ED040000
E80007230500EB00FEF3E7D3DD040000
E0000815F600DD00FD060507FD050000
F100FB1BF4001000160AFCE903F90000
070004040600090006F6ECFAFB050000
0300FB0804000800FE12F9F9ECF00000
F30009E81700FB00F3FBD7F6ED140000
0400F507110003000003FCFAF2F30000
090019F324001800F7F3F30D081E0000
FD0010F115000A00F903EF0F0D040000
1200F0060D00F800F9000F070CEB0000
F900FE001200F90009FF141200FA0000
1500FA0C0A00F7001D090BF6F7FD0000
030008F1FC00FA00050E0008EFF30000
F70020E21A001400F40BEF0D09F90000
EB00FF08FD00FF000E010BE7FDF50000
050002ED1400F800F3190618F1D50000
F60006060A00EF0007FE0F1408130000
0B0004FD06001E00E405DCF7EFFF0000
FA00FDFF1400FD001011F80912F10000
DC00FE02FF000500FEFEF1F1FA0A0000
ED0004010C00FC00160107FB181C0000
0500FB121E000B00ED1903FBF3E50000
0800F61E1300FD00FC0902F0FFE70000
17001FD10D002C00EBEBD80AFF1A0000
0D00070B0400FC00050204FEF8F70000
1500F41A0700F7000202091407ED0000
030002091600F30010E21214FD070000
11000AE80500F40005EDF1F8F30E0000
1A00F4F70E001A000218FD030FD40000
1700FD011C001900FC0FF31F02E60000
FD00FB0D0600D8001502FFF501170000
ED0006E2FB00F900FB01FF060EDF0000
09000214FE00F0001BF81CFE16F40000
0F00EC05ED00EF00F4F3F9F4FD060000
0E0003141500FF000D0406EDFF0A0000
FD0001FA00001000E9F8FC09F8040000
0000FBF50B00020005F1F6FEE9180000
F200F60220000100DE0A010004DA0000
0000F4021600FF000208170AFBDF0000
1B0002D60B002900E9E8F30707030000
FE0006150C00F600070D11EDF1E40000
0700FC180C00EF00FEFA0C0205FA0000
27000AF50C00210003DB0FF9F0F20000
EB0004060500E4000A17E9F0F8010000
0900EAF1FC000300001C16FF18AE0000
0F00F90D12000C0001131F16F7E00000
EC0024F80C00FC00F8D5DEE2F2340000
0A00ED09FB0005000DF01603F3F80000
EC00F60EEC00EA001EFC08030BF90000
FD000EE4FB000A00F5E2FC0AE7100000
E8001CF01700F90010FFF200FA100000
1100F8F0F9000100FA17040A05EE0000
1F0012EB17000900ECE9F30AF30C0000
F800020A02001300F6F91800EFD50000
190008180F000A0005FD0BFEFCEA0000
200007F012000900FC06FA060E0E0000
EE000517250008000C2500F703E30000
F500062E0B00EE0011040CE3FF160000
0800FF17FB00FD00070E1613F0D00000
E800EE0A040017000A21F6F102F30000
08000AEEFD00FD000D150F0710DD0000
1100020E1B00010004FF242204F30000
FA0001FE18000E00FDF8F9FEDE1D0000
F60007241100E600211103E6EEFB0000
070008161E00FA0020FBFFF805020000
060011EE03000D00ED0205170EE60000
F20015F40A000700EC0CE00917140000
FA0008EB1700FA00041B0F1303F40000
03000AEBFB00EC00FC000CFD050A0000
0300F4F6F1000300F8080CF0FDE40000
ED00061C0900090014150BE6F4FA0000
230006E012000500F6072B341D010000
F400120109000200110CFB0A13050000
ED00FC2C11001600020CEFD7E2FE0000
E3001214FD000E00040DDFEFEF040000
0900FFFD0D001F00F805D4F4F2FA0000
0600F10D0300FC000C1D0DF5FBD90000
0D00181229000A001B032417FC100000
EB0004FE0000F0000106ECF8FB0A0000
E300F32808000600120EE5D405000000
F80009121D000A00030802EF02100000
F800FB070100FE000D120606FC040000
000000000000000006DBF50DEFFB0604
000000000000000007F9F309F508010A
0000000000000000FF1107FEF906F2F9
000000000000000004E3E91EF300FCF3
0000000000000000041A0BD4F0FCFF05
000000000000000009F2EF1112FA1EFB
0000000000000000FB04F5F10E0B09FC
0000000000000000FD06F4F808F5FCE6
0000000000000000EE02EC3A1201FDF5
0000000000000000F502ED3300FB12F4
00000000000000000A030DDFF70C0013
00000000000000001AECFCD50AF3170D
0000000000000000F8FBFE0901001A02
0000000000000000EF0506EDF806F903
00000000000000001A15F1FAF807EF0C
00000000000000000605FF08FBFFFDFD
0000000000000000DDD80D1614F81206
0000000000000000FDDAE9FBFFE5F8F5
0000000000000000EFF1F61BFCF501EE
0000000000000000F6F11DDCF107130D
00000000000000001BF31FA5D801E807
0000000000000000E3E9D82D05022A00
00000000000000001601F800F9F80BF3
0000000000000000042117C5FC03F9F9
0000000000000000FFFDF7050DF708F1
0000000000000000E9EAE957240405F8
000000000000000011031AC4E0000509
000000000000000018030AC906F016F3
0000000000000000EBEF100CFB000D00
0000000000000000040D0ED4EB0DFEF6
00000000000000000A1AF6B00F13E216
0000000000000000FCFDFCE5FAF6F40C
0000000000000000EDEA020406FBEAFE
0000000000000000CECFF10F02E90702
0000000000000000CF0B142400F8E7FF
0000000000000000FEF80ED2F405F913
000000000000000001DD0DBCE400EB0A
0000000000000000C211042912040A19
00000000000000001EF4F800FEFB14E9
000000000000000009FC06BA05F80D09
0000000000000000050BEFDE09EDF3F4
000000000000000004FFEC5C19F901FF
00000000000000001CFE17C0EF03F60B
000000000000000003F7EAD818EC1EDB
0000000000000000EFEC04D9F6060516
00000000000000001C0103EAF703E600
0000000000000000FDF212A5FD0FD2EE
0000000000000000E80E1BF0EC00F813
0000000000000000FF02031AF6FC0A07
0000000000000000D1F2F93AF7F211ED
0000000000000000DD18FF1C06060506
0000000000000000E400FFE3010EF0F4
0000000000000000DFE1F2FB0302F2F9
0000000000000000E225F633081009FF
00000000000000001C091AEC11060013
0000000000000000EAFAFBCCF8040305
00000000000000000D0E14C6F1F2FE18
0000000000000000F810FD08E9F7FAF2
000000000000000019F311EBF4F700FB
0000000000000000F3EDE60D450505FA
0000000000000000F00B12E2E8FBFDFE
0000000000000000EF1106E105F1EF12
0000000000000000F3E117AB0305F8F6
0000000000000000F51A120CFEF10203
00000000000000000303F711FBFB02F5
0000000000000000D5F4FB3306F1EEDD
0000000000000000FCF4EC1FF4F402FA
0000000000000000F0F2EF1FFCFCFCE7
0000000000000000FAD3FCFDFEFDFEFF
0000000000000000E903FA0101010103
00000000000000000A10F2F6FFFF0B0D
0000000000000000EFEEEFFF17F8FD02
00000000000000000AEC02C5E6F6050B
0000000000000000F4FCF0F712FA16F7
00000000000000000BEB0DF9FD04F9E9
00000000000000001003E5151BFA0F04
0000000000000000EC1E20E3020CF708
000000000000000010F805E0E805F612
0000000000000000F6C9FE28100808F9
0000000000000000EC0DEA2609FAF4EC
0000000000000000F9E007F2ECE60618
0000000000000000F7ECFFEDEDF6191A
0000000000000000F401F605FB080101
0000000000000000FDDF07E4DFFCFB1A
0000000000000000071E02C9F811DEF9
00000000000000000BFAF00912071D03
0000000000000000FC04E4FC13E6F002
0000000000000000020A0BE3E1FAE2F2
0000000000000000FAFEF6FA03FCF107
0000000000000000FB18EF27090918EE
0000000000000000F1170502F002F6FE
00000000000000000D0AFCF0110102F5
0000000000000000F9EE0A0801FD1E03
0000000000000000EF03E31807F9F3E6
0000000000000000013021091009D8FB
0000000000000000100FF9D9FAFBFDF9
0000000000000000ECD10B00EFFC0EFA
000000000000000006EF00F8E007F8F2
0000000000000000071308E2D60801FF
00000000000000000AE716C0DF09FBF9
0000000000000000111B0CC8E0FBEEF6
00000000000000000C37F408FA0D05EC
0000000000000000EFD1E13613DD00F2
000000000000000014FA07CEE6FBFF0D
0000000000000000F3F30A030506F120
00000000000000000C03FD380008F7F5
0000000000000000FCFFF12702FB0D04
000000000000000014090FFA1FF507F2
000000000000000011F80108F4FF11FC
0000000000000000F8FBEC2611F805F1
00000000000000000612FEE803F6D6FE
0000000000000000F60EFDE1D8FE04EF
0000000000000000F4F8FB130BF017E7
0000000000000000E108FD0907F602FC
0000000000000000EB10FFE208FA041D
000000000000000004FE14ECF70E040D
0000000000000000FCF912F5D0F505F8
0000000000000000E305EC3E0AF70704
00000000000000000BE2F70E08E3F6F7
000000000000000000F7E8FFD4F4F914
00000000000000000AFB09EE18FDF407
00000000000000001200000001ED11F4
0000000000000000F5FBF40D06F6F206
0000000000000000F70306FDFDFA20EF
0000000000000000FB2A021313010D0A
00000000000000000E08F80815F3F0FF
000000000000000006F90DEAD2F2DC1E
0000000000000000DF13F90308041002
0000000000000000EB141244070C14E6
0000000000000000EE2F0D2A0916FBEC
0000000000000000DD300E0C1B16FB06
0000000000000000F4070602120D0A09
0000000000000000F2FCFFEEEBF1E70E
0000000000000000E927FC03FCFF0C06
00000000000000000EEAFFE921FEF710
0000000000000000DF0CF0FFFCEC0105
000000000000000002F007D3F8E707FE
0000000000000000FC00FCE1E3EBFDF7
0000000000000000E20B0805F705F3FA
00000000000000001ADD03EB18F9D50B
0000000000000000FA16FAE8EAFEF5FD
0000000000000000FE04EA070FEAF4F4
000000000000000006F612A2C7F9E71C
0000000000000000FC1601E20D0CFA0F
000000000000000006E3F714F6F91605
0000000000000000E50AFF3BFE03FFD6
0000000000000000FD06F92502F8F2FF
0000000000000000CC09FE3518F501DF
0000000000000000FBE0F9FDEDF7F9FE
0000000000000000FF0EFCF2F6FC0EFE
00000000000000000610FE0C0E061000
0000000000000000F5F2E3FFEAFE0501
0000000000000000F6EB0CD4F7F81619
000000000000000016FBF2CF04E901ED
0000000000000000F3F6F702F8F6FCE7
00000000000000000EF8F90B1703FD09
000000000000000018EBFA0E080502EB
000000000000000013FCDDF503F3F605
0000000000000000F9D1022AF5FDFBF1
0000000000000000F6110FE6F401EAF8
0000000000000000FAEE0319E7F203FA
0000000000000000F607FA1EFEF432EC
0000000000000000FC09F702F6FE1FF8
0000000000000000FDFAE31FE5E826DC
0000000000000000E71D000CF413C6FD
0000000000000000040EFCFE0DFD190A
00000000000000001A02021C03FEFC06
0000000000000000E9040310EB17E21E
0000000000000000F6FE1300FBFAED0B
0000000000000000FE0D020602110EED
00000000000000000F01E61EFB0915E6
0000000000000000140E11FE020BE1EF
000000000000000021F2F4FFF9FF13FC
000000000000000001F7FA19F6F0FF14
0000000000000000010E1901F021C203
0000000000000000FE18FC07040108EC
0000000000000000FA00FCFA040B110D
000000000000000017DD0614170E2FEE
00000000000000001A03FF02EAFF1DDD
000000000000000011EBE2FF31F111D2
0000000000000000FBFAE014050FEE0B
00000000000000000411EAE713FF06EB
00000000000000000703EE3705F1F1E9
0000000000000000FCFBFC0CF21EEB19
000000000000000007F40A15EDF70916
000000000000000002FD28F2FC0DF31C
00000000000000000BF91005EF1305FB
0000000000000000051302FBF9F7FEF9
0000000000000000F1E6070C00F1FFFF
0000000000000000F2EE0511D904F31A
0000000000000000FB0B0709E10BE813
000000000000000016F2F620F9061FFC
0000000000000000F2FF0CEC02F7ED0B
000000000000000006080FE2F1FCFF18
000000000000000001FA020617F00EFF
00000000000000000EFF01E11410000B
000000000000000019FD07E9EA0CE919
0000000000000000FEF30124F4E20706
0000000000000000160AE80F08F807FE
0000000000000000041C000AFB1BF311
0000000000000000DA04021AF4FAEE0A
0000000000000000020FFA0302FD00FD
0000000000000000F7080C01EB081309
0000000000000000030B03CB000B0F05
0000000000000000F3F4F1200EF60FF6
0000000000000000EAF9EB31EC04F0FB
0000000000000000000D1210F60BE4FC
0000000000000000F9EE0AF600FAF41F
0000000000000000060C27F5FE061306
0000000000000000FE0900F30A070607
0000000000000000FC160CFF0E0203F3
0000000000000000E9182804DDFFEC12
00000000000000000219091AF408F908
00000000000000001009010709000502
0000000000000000FDEA15ED0800FC0B
0000000000000000F71601171C07FEFE
00000000000000000FFE0DDFE408FE04
000000000000000029EDFDD7E5F5FE06
0000000000000000FD0CDD2BF1111AFA
0000000000000000130601F713F4F6E4
000000000000000003FAED1D0B02FDF2
0000000000000000FB050216FD15000B
00000000000000000220F500020608E9
00000000000000000FF019EFF40FFF1B
00000000000000000BF500EBF7F7FB03
00000000000000000504E4F80CF90901
00000000000000000BFE08E20906F801
0000000000000000EE0106110F000F0A
00000000000000000B060B00EFFA0E00
0000000000000000FA03E90714F913F6
